{"version":"1.0","truncation":null,"padding":null,"added_tokens":[{"id":0,"special":true,"content":"[PAD]","single_word":false,"lstrip":false,"rstrip":false,"normalized":false},{"id":1,"special":true,"content":"[UNK]","single_word":false,"lstrip":false,"rstrip":false,"normalized":false},{"id":2,"special":true,"content":"[CLS]","single_word":false,"lstrip":false,"rstrip":false,"normalized":false},{"id":3,"special":true,"content":"[SEP]","single_word":false,"lstrip":false,"rstrip":false,"normalized":false},{"id":4,"special":true,"content":"[MASK]","single_word":false,"lstrip":false,"rstrip":false,"normalized":false},{"id":12751,"special":false,"content":"기레기들","single_word":false,"lstrip":false,"rstrip":false,"normalized":true},{"id":13076,"special":false,"content":"강다니엘","single_word":false,"lstrip":false,"rstrip":false,"normalized":true},{"id":30000,"special":false,"content":"연성문장","single_word":false,"lstrip":false,"rstrip":false,"normalized":true},{"id":30001,"special":false,"content":"스물두번째생일","single_word":false,"lstrip":false,"rstrip":false,"normalized":true},{"id":30002,"special":false,"content":"기습공격","single_word":false,"lstrip":false,"rstrip":false,"normalized":true},{"id":30003,"special":false,"content":"수련언니","single_word":false,"lstrip":false,"rstrip":false,"normalized":true},{"id":30004,"special":false,"content":"다크몬스터","single_word":false,"lstrip":false,"rstrip":false,"normalized":true},{"id":30005,"special":false,"content":"헬로헬로","single_word":false,"lstrip":false,"rstrip":false,"normalized":true},{"id":30006,"special":false,"content":"셀카듀스","single_word":false,"lstrip":false,"rstrip":false,"normalized":true},{"id":30007,"special":false,"content":"동물농장","single_word":false,"lstrip":false,"rstrip":false,"normalized":true},{"id":30008,"special":false,"content":"섬온화님","single_word":false,"lstrip":false,"rstrip":false,"normalized":true},{"id":30009,"special":false,"content":"취업준비","single_word":false,"lstrip":false,"rstrip":false,"normalized":true},{"id":30010,"special":false,"content":"페인킬러","single_word":false,"lstrip":false,"rstrip":false,"normalized":true},{"id":30011,"special":false,"content":"라플라스","single_word":false,"lstrip":false,"rstrip":false,"normalized":true},{"id":30012,"special":false,"content":"시스젠더","single_word":false,"lstrip":false,"rstrip":false,"normalized":true},{"id":30013,"special":false,"content":"생일해시","single_word":false,"lstrip":false,"rstrip":false,"normalized":true},{"id":30014,"special":false,"content":"프리허그","single_word":false,"lstrip":false,"rstrip":false,"normalized":true},{"id":30015,"special":false,"content":"딥상어동","single_word":false,"lstrip":false,"rstrip":false,"normalized":true},{"id":30016,"special":false,"content":"뉴스원샷","single_word":false,"lstrip":false,"rstrip":false,"normalized":true},{"id":30017,"special":false,"content":"취향겹침표","single_word":false,"lstrip":false,"rstrip":false,"normalized":true},{"id":30018,"special":false,"content":"푸른비늘","single_word":false,"lstrip":false,"rstrip":false,"normalized":true},{"id":30019,"special":false,"content":"사법연수원","single_word":false,"lstrip":false,"rstrip":false,"normalized":true},{"id":30020,"special":false,"content":"느낌표느낌표","single_word":false,"lstrip":false,"rstrip":false,"normalized":true},{"id":30021,"special":false,"content":"디저트39","single_word":false,"lstrip":false,"rstrip":false,"normalized":true},{"id":30022,"special":false,"content":"연습영상","single_word":false,"lstrip":false,"rstrip":false,"normalized":true},{"id":30023,"special":false,"content":"박지훈X","single_word":false,"lstrip":false,"rstrip":false,"normalized":true},{"id":30024,"special":false,"content":"안무영상","single_word":false,"lstrip":false,"rstrip":false,"normalized":true},{"id":30025,"special":false,"content":"전공공부","single_word":false,"lstrip":false,"rstrip":false,"normalized":true},{"id":30026,"special":false,"content":"신규확진","single_word":false,"lstrip":false,"rstrip":false,"normalized":true},{"id":30027,"special":false,"content":"스타뉴스","single_word":false,"lstrip":false,"rstrip":false,"normalized":true},{"id":30028,"special":false,"content":"바다동물","single_word":false,"lstrip":false,"rstrip":false,"normalized":true},{"id":30029,"special":false,"content":"군수송기","single_word":false,"lstrip":false,"rstrip":false,"normalized":true},{"id":30030,"special":false,"content":"아이돌등판","single_word":false,"lstrip":false,"rstrip":false,"normalized":true},{"id":30031,"special":false,"content":"자빱사단","single_word":false,"lstrip":false,"rstrip":false,"normalized":true},{"id":30032,"special":false,"content":"대면팬싸","single_word":false,"lstrip":false,"rstrip":false,"normalized":true},{"id":30033,"special":false,"content":"생일너무너무","single_word":false,"lstrip":false,"rstrip":false,"normalized":true},{"id":30034,"special":false,"content":"반달모양","single_word":false,"lstrip":false,"rstrip":false,"normalized":true},{"id":30035,"special":false,"content":"판타블렛","single_word":false,"lstrip":false,"rstrip":false,"normalized":true},{"id":30036,"special":false,"content":"모닝커피","single_word":false,"lstrip":false,"rstrip":false,"normalized":true},{"id":30037,"special":false,"content":"심야영화","single_word":false,"lstrip":false,"rstrip":false,"normalized":true},{"id":30038,"special":false,"content":"아쿠아리움","single_word":false,"lstrip":false,"rstrip":false,"normalized":true},{"id":30039,"special":false,"content":"안경에이스","single_word":false,"lstrip":false,"rstrip":false,"normalized":true},{"id":30040,"special":false,"content":"뮤직뱅크","single_word":false,"lstrip":false,"rstrip":false,"normalized":true},{"id":30041,"special":false,"content":"철인3종경기","single_word":false,"lstrip":false,"rstrip":false,"normalized":true},{"id":30042,"special":false,"content":"자빱티비","single_word":false,"lstrip":false,"rstrip":false,"normalized":true},{"id":30043,"special":false,"content":"가정했을때","single_word":false,"lstrip":false,"rstrip":false,"normalized":true},{"id":30044,"special":false,"content":"펜트하우스","single_word":false,"lstrip":false,"rstrip":false,"normalized":true},{"id":30045,"special":false,"content":"불로장생","single_word":false,"lstrip":false,"rstrip":false,"normalized":true},{"id":30046,"special":false,"content":"경멸신한","single_word":false,"lstrip":false,"rstrip":false,"normalized":true},{"id":30047,"special":false,"content":"물고기들","single_word":false,"lstrip":false,"rstrip":false,"normalized":true},{"id":30048,"special":false,"content":"무사만루","single_word":false,"lstrip":false,"rstrip":false,"normalized":true},{"id":30049,"special":false,"content":"전과목A","single_word":false,"lstrip":false,"rstrip":false,"normalized":true},{"id":30050,"special":false,"content":"수지서현","single_word":false,"lstrip":false,"rstrip":false,"normalized":true},{"id":30051,"special":false,"content":"경멸하나","single_word":false,"lstrip":false,"rstrip":false,"normalized":true},{"id":30052,"special":false,"content":"원더케이","single_word":false,"lstrip":false,"rstrip":false,"normalized":true},{"id":30053,"special":false,"content":"로또사서","single_word":false,"lstrip":false,"rstrip":false,"normalized":true},{"id":30054,"special":false,"content":"쫀아에용","single_word":false,"lstrip":false,"rstrip":false,"normalized":true},{"id":30055,"special":false,"content":"맛집여행","single_word":false,"lstrip":false,"rstrip":false,"normalized":true},{"id":30056,"special":false,"content":"아웃카운트","single_word":false,"lstrip":false,"rstrip":false,"normalized":true},{"id":30057,"special":false,"content":"헤럴드POP","single_word":false,"lstrip":false,"rstrip":false,"normalized":true},{"id":30058,"special":false,"content":"배경화면","single_word":false,"lstrip":false,"rstrip":false,"normalized":true},{"id":30059,"special":false,"content":"젠더퀴어","single_word":false,"lstrip":false,"rstrip":false,"normalized":true},{"id":30060,"special":false,"content":"파트분배","single_word":false,"lstrip":false,"rstrip":false,"normalized":true},{"id":30061,"special":false,"content":"감방생활","single_word":false,"lstrip":false,"rstrip":false,"normalized":true},{"id":30062,"special":false,"content":"드레이코","single_word":false,"lstrip":false,"rstrip":false,"normalized":true},{"id":30063,"special":false,"content":"자컾연성","single_word":false,"lstrip":false,"rstrip":false,"normalized":true},{"id":30064,"special":false,"content":"투르크메니스탄","single_word":false,"lstrip":false,"rstrip":false,"normalized":true},{"id":30065,"special":false,"content":"북극바다","single_word":false,"lstrip":false,"rstrip":false,"normalized":true},{"id":30066,"special":false,"content":"총공총공","single_word":false,"lstrip":false,"rstrip":false,"normalized":true},{"id":30067,"special":false,"content":"제이굿즈","single_word":false,"lstrip":false,"rstrip":false,"normalized":true},{"id":30068,"special":false,"content":"자이언츠","single_word":false,"lstrip":false,"rstrip":false,"normalized":true},{"id":30069,"special":false,"content":"로드스터","single_word":false,"lstrip":false,"rstrip":false,"normalized":true},{"id":30070,"special":false,"content":"기립박수","single_word":false,"lstrip":false,"rstrip":false,"normalized":true},{"id":30071,"special":false,"content":"사운드트랙","single_word":false,"lstrip":false,"rstrip":false,"normalized":true},{"id":30072,"special":false,"content":"이글읽고난다음","single_word":false,"lstrip":false,"rstrip":false,"normalized":true},{"id":30073,"special":false,"content":"개인그림","single_word":false,"lstrip":false,"rstrip":false,"normalized":true},{"id":30074,"special":false,"content":"불우이웃","single_word":false,"lstrip":false,"rstrip":false,"normalized":true},{"id":30075,"special":false,"content":"일어낫다","single_word":false,"lstrip":false,"rstrip":false,"normalized":true}],"normalizer":{"type":"BertNormalizer","clean_text":true,"handle_chinese_chars":true,"strip_accents":null,"lowercase":false},"pre_tokenizer":{"type":"BertPreTokenizer"},"post_processor":{"type":"TemplateProcessing","single":[{"SpecialToken":{"id":"[CLS]","type_id":0}},{"Sequence":{"id":"A","type_id":0}},{"SpecialToken":{"id":"[SEP]","type_id":0}}],"pair":[{"SpecialToken":{"id":"[CLS]","type_id":0}},{"Sequence":{"id":"A","type_id":0}},{"SpecialToken":{"id":"[SEP]","type_id":0}},{"Sequence":{"id":"B","type_id":1}},{"SpecialToken":{"id":"[SEP]","type_id":1}}],"special_tokens":{"[CLS]":{"id":"[CLS]","ids":[2],"tokens":["[CLS]"]},"[SEP]":{"id":"[SEP]","ids":[3],"tokens":["[SEP]"]}}},"decoder":{"type":"WordPiece","prefix":"##","cleanup":true},"model":{"type":"WordPiece","unk_token":"[UNK]","continuing_subword_prefix":"##","max_input_chars_per_word":100,"vocab":{"[PAD]":0,"[UNK]":1,"[CLS]":2,"[SEP]":3,"[MASK]":4,"!":5,"\"":6,"#":7,"$":8,"%":9,"'":10,"(":11,")":12,"*":13,"+":14,",":15,"-":16,".":17,"/":18,"0":19,"1":20,"2":21,"3":22,"4":23,"5":24,"6":25,"7":26,"8":27,"9":28,":":29,";":30,"=":31,"?":32,"@":33,"A":34,"B":35,"C":36,"D":37,"E":38,"F":39,"G":40,"H":41,"I":42,"J":43,"K":44,"L":45,"M":46,"N":47,"O":48,"P":49,"Q":50,"R":51,"S":52,"T":53,"U":54,"V":55,"W":56,"X":57,"Y":58,"Z":59,"[":60,"\\":61,"]":62,"^":63,"_":64,"`":65,"a":66,"b":67,"c":68,"d":69,"e":70,"f":71,"g":72,"h":73,"i":74,"j":75,"k":76,"l":77,"m":78,"n":79,"o":80,"p":81,"q":82,"r":83,"s":84,"t":85,"u":86,"v":87,"w":88,"x":89,"y":90,"z":91,"{":92,"|":93,"}":94,"~":95,"®":96,"·":97,"‼":98,"⁉":99,"⃣":100,"™":101,"ℹ":102,"↔":103,"↗":104,"↘":105,"↙":106,"∼":107,"⏪":108,"▪":109,"▶":110,"◀":111,"☀":112,"☄":113,"☎":114,"☑":115,"☔":116,"☘":117,"☝":118,"☠":119,"☢":120,"☣":121,"☹":122,"☺":123,"♀":124,"♂":125,"♠":126,"♣":127,"♥":128,"♦":129,"♨":130,"⚔":131,"⚖":132,"⚠":133,"⚡":134,"⚫":135,"⚰":136,"⛄":137,"⛏":138,"⛔":139,"⛳":140,"✂":141,"✅":142,"✈":143,"✊":144,"✋":145,"✌":146,"✔":147,"✖":148,"✨":149,"✳":150,"✴":151,"❄":152,"❌":153,"❎":154,"❓":155,"❔":156,"❕":157,"❗":158,"❣":159,"❤":160,"➕":161,"➖":162,"➡":163,"➰":164,"⬅":165,"⬆":166,"⬇":167,"⬛":168,"⭐":169,"⭕":170,"〰":171,"ㄱ":172,"ㄲ":173,"ㄳ":174,"ㄴ":175,"ㄷ":176,"ㄸ":177,"ㄹ":178,"ㄺ":179,"ㄻ":180,"ㅀ":181,"ㅁ":182,"ㅂ":183,"ㅃ":184,"ㅄ":185,"ㅅ":186,"ㅆ":187,"ㅇ":188,"ㅈ":189,"ㅉ":190,"ㅊ":191,"ㅋ":192,"ㅌ":193,"ㅍ":194,"ㅎ":195,"㊗":196,"가":197,"각":198,"갂":199,"갃":200,"간":201,"갆":202,"갇":203,"갈":204,"갉":205,"갋":206,"갏":207,"감":208,"갑":209,"값":210,"갓":211,"갔":212,"강":213,"갖":214,"갗":215,"갘":216,"같":217,"갚":218,"갛":219,"개":220,"객":221,"갠":222,"갢":223,"갣":224,"갤":225,"갬":226,"갭":227,"갮":228,"갯":229,"갰":230,"갱":231,"갲":232,"갴":233,"갵":234,"갷":235,"갸":236,"갹":237,"갼":238,"걀":239,"걈":240,"걉":241,"걌":242,"걍":243,"걑":244,"걔":245,"걘":246,"걩":247,"거":248,"걱":249,"걲":250,"건":251,"걵":252,"걷":253,"걸":254,"검":255,"겁":256,"겂":257,"것":258,"겄":259,"겅":260,"겆":261,"겇":262,"겈":263,"겉":264,"겊":265,"겋":266,"게":267,"겍":268,"겎":269,"겐":270,"겓":271,"겔":272,"겜":273,"겝":274,"겟":275,"겠":276,"겡":277,"겢":278,"겤":279,"겧":280,"겨":281,"격":282,"겪":283,"견":284,"겯":285,"결":286,"겸":287,"겹":288,"겻":289,"겼":290,"경":291,"곀":292,"곁":293,"곂":294,"곃":295,"계":296,"곅":297,"곈":298,"곌":299,"곗":300,"곘":301,"곙":302,"고":303,"곡":304,"곤":305,"곧":306,"골":307,"곪":308,"곬":309,"곯":310,"곰":311,"곱":312,"곳":313,"공":314,"곶":315,"곷":316,"곸":317,"곹":318,"곺":319,"곻":320,"과":321,"곽":322,"관":323,"괁":324,"괂":325,"괄":326,"괌":327,"괏":328,"광":329,"괘":330,"괙":331,"괜":332,"괞":333,"괬":334,"괭":335,"괴":336,"괵":337,"괸":338,"괼":339,"굉":340,"교":341,"굑":342,"굔":343,"굘":344,"굣":345,"굥":346,"구":347,"국":348,"굮":349,"굯":350,"군":351,"굳":352,"굴":353,"굵":354,"굶":355,"굷":356,"굻":357,"굼":358,"굽":359,"굿":360,"궁":361,"궂":362,"궃":363,"궄":364,"궅":365,"궈":366,"궉":367,"권":368,"궍":369,"궐":370,"궘":371,"궙":372,"궛":373,"궜":374,"궝":375,"궤":376,"궨":377,"궸":378,"궹":379,"귀":380,"귁":381,"귄":382,"귈":383,"귐":384,"귓":385,"규":386,"귝":387,"균":388,"귤":389,"귱":390,"그":391,"극":392,"근":393,"귾":394,"귿":395,"글":396,"긁":397,"긂":398,"긇":399,"금":400,"급":401,"긋":402,"긌":403,"긍":404,"긎":405,"긐":406,"긑":407,"긒":408,"긔":409,"긕":410,"긘":411,"긜":412,"긧":413,"기":414,"긱":415,"긴":416,"긷":417,"길":418,"긿":419,"김":420,"깁":421,"깂":422,"깃":423,"깄":424,"깅":425,"깆":426,"깈":427,"깉":428,"깊":429,"깋":430,"까":431,"깍":432,"깎":433,"깐":434,"깔":435,"깜":436,"깝":437,"깞":438,"깟":439,"깠":440,"깡":441,"깢":442,"깤":443,"깥":444,"깦":445,"깧":446,"깨":447,"깩":448,"깬":449,"깰":450,"깸":451,"깹":452,"깻":453,"깼":454,"깽":455,"꺄":456,"꺅":457,"꺌":458,"꺙":459,"꺠":460,"꺵":461,"꺼":462,"꺽":463,"꺾":464,"껀":465,"껄":466,"껌":467,"껍":468,"껏":469,"껐":470,"껑":471,"껒":472,"껔":473,"께":474,"껙":475,"껜":476,"껨":477,"껫":478,"껬":479,"껭":480,"껰":481,"껴":482,"껵":483,"껶":484,"껸":485,"껼":486,"꼅":487,"꼇":488,"꼈":489,"꼉":490,"꼐":491,"꼬":492,"꼭":493,"꼮":494,"꼰":495,"꼳":496,"꼴":497,"꼻":498,"꼼":499,"꼽":500,"꼿":501,"꽁":502,"꽂":503,"꽃":504,"꽄":505,"꽅":506,"꽈":507,"꽉":508,"꽊":509,"꽌":510,"꽐":511,"꽝":512,"꽤":513,"꽥":514,"꽹":515,"꾀":516,"꾁":517,"꾐":518,"꾕":519,"꾜":520,"꾤":521,"꾸":522,"꾹":523,"꾼":524,"꾾":525,"꾿":526,"꿀":527,"꿁":528,"꿂":529,"꿃":530,"꿇":531,"꿈":532,"꿉":533,"꿋":534,"꿍":535,"꿎":536,"꿏":537,"꿑":538,"꿔":539,"꿘":540,"꿜":541,"꿧":542,"꿨":543,"꿩":544,"꿰":545,"꿱":546,"꿴":547,"뀌":548,"뀐":549,"뀔":550,"뀜":551,"뀝":552,"뀠":553,"뀡":554,"뀨":555,"뀬":556,"끄":557,"끅":558,"끈":559,"끊":560,"끋":561,"끌":562,"끍":563,"끓":564,"끔":565,"끕":566,"끗":567,"끘":568,"끙":569,"끚":570,"끛":571,"끝":572,"끠":573,"끤":574,"끼":575,"끽":576,"낀":577,"낂":578,"낃":579,"낄":580,"낌":581,"낍":582,"낏":583,"낑":584,"낔":585,"낗":586,"나":587,"낙":588,"낚":589,"낛":590,"난":591,"낝":592,"낞":593,"낟":594,"날":595,"낡":596,"낧":597,"남":598,"납":599,"낫":600,"났":601,"낭":602,"낮":603,"낯":604,"낰":605,"낱":606,"낲":607,"낳":608,"내":609,"낵":610,"낸":611,"낼":612,"냄":613,"냅":614,"냇":615,"냈":616,"냉":617,"냊":618,"냌":619,"냐":620,"냑":621,"냔":622,"냘":623,"냠":624,"냡":625,"냣":626,"냤":627,"냥":628,"냦":629,"냨":630,"냬":631,"냰":632,"냼":633,"너":634,"넉":635,"넋":636,"넌":637,"넎":638,"널":639,"넑":640,"넒":641,"넓":642,"넖":643,"넗":644,"넘":645,"넙":646,"넚":647,"넛":648,"넜":649,"넝":650,"넠":651,"넢":652,"넣":653,"네":654,"넥":655,"넨":656,"넫":657,"넬":658,"넴":659,"넵":660,"넷":661,"넸":662,"넹":663,"넺":664,"넼":665,"넽":666,"넿":667,"녀":668,"녁":669,"녂":670,"년":671,"녅":672,"녆":673,"녈":674,"념":675,"녓":676,"녔":677,"녕":678,"녘":679,"녛":680,"녜":681,"녠":682,"녤":683,"녴":684,"노":685,"녹":686,"논":687,"녾":688,"녿":689,"놀":690,"놁":691,"놈":692,"놉":693,"놋":694,"놌":695,"농":696,"놐":697,"높":698,"놓":699,"놔":700,"놘":701,"놜":702,"놧":703,"놨":704,"놬":705,"놯":706,"놰":707,"뇀":708,"뇌":709,"뇐":710,"뇜":711,"뇟":712,"뇠":713,"뇨":714,"뇬":715,"뇰":716,"뇸":717,"뇽":718,"누":719,"눅":720,"눈":721,"눌":722,"눍":723,"눔":724,"눕":725,"눗":726,"눙":727,"눜":728,"눞":729,"눟":730,"눠":731,"눤":732,"눨":733,"눰":734,"눴":735,"눼":736,"뉍":737,"뉘":738,"뉜":739,"뉠":740,"뉨":741,"뉩":742,"뉴":743,"뉸":744,"뉼":745,"늄":746,"늉":747,"느":748,"늑":749,"는":750,"늕":751,"늗":752,"늘":753,"늙":754,"늟":755,"늠":756,"늡":757,"늣":758,"능":759,"늦":760,"늧":761,"늨":762,"늩":763,"늪":764,"늫":765,"늬":766,"늰":767,"늼":768,"니":769,"닉":770,"닊":771,"닌":772,"닏":773,"닐":774,"님":775,"닙":776,"닚":777,"닛":778,"닜":779,"닝":780,"닞":781,"닟":782,"닠":783,"닢":784,"닣":785,"다":786,"닥":787,"닦":788,"단":789,"닪":790,"닫":791,"달":792,"닭":793,"닮":794,"닯":795,"닳":796,"담":797,"답":798,"닶":799,"닷":800,"닸":801,"당":802,"닺":803,"닻":804,"닼":805,"닽":806,"닾":807,"닿":808,"대":809,"댁":810,"댄":811,"댇":812,"댈":813,"댐":814,"댑":815,"댓":816,"댔":817,"댕":818,"댖":819,"댗":820,"댘":821,"댙":822,"댛":823,"댜":824,"댠":825,"댤":826,"댭":827,"댯":828,"댱":829,"댸":830,"덋":831,"더":832,"덕":833,"던":834,"덛":835,"덜":836,"덟":837,"덤":838,"덥":839,"덧":840,"덨":841,"덩":842,"덪":843,"덫":844,"덮":845,"덯":846,"데":847,"덱":848,"덴":849,"덷":850,"델":851,"뎀":852,"뎁":853,"뎃":854,"뎄":855,"뎅":856,"뎆":857,"뎈":858,"뎌":859,"뎐":860,"뎔":861,"뎜":862,"뎟":863,"뎠":864,"뎡":865,"뎨":866,"도":867,"독":868,"돈":869,"돋":870,"돌":871,"돔":872,"돕":873,"돗":874,"동":875,"돚":876,"돛":877,"돜":878,"돝":879,"돞":880,"돟":881,"돠":882,"돤":883,"돨":884,"돰":885,"돱":886,"돳":887,"돴":888,"돵":889,"돼":890,"됀":891,"됄":892,"됌":893,"됍":894,"됏":895,"됐":896,"됑":897,"됒":898,"됗":899,"되":900,"됙":901,"된":902,"될":903,"됨":904,"됩":905,"됫":906,"됬":907,"됭":908,"됮":909,"됴":910,"됵":911,"됸":912,"됻":913,"됼":914,"둇":915,"둉":916,"두":917,"둑":918,"둔":919,"둗":920,"둘":921,"둟":922,"둠":923,"둡":924,"둣":925,"둥":926,"둬":927,"둰":928,"둿":929,"뒀":930,"뒈":931,"뒛":932,"뒝":933,"뒤":934,"뒨":935,"뒬":936,"뒷":937,"뒸":938,"뒹":939,"뒺":940,"듀":941,"듁":942,"듄":943,"듈":944,"듐":945,"듕":946,"드":947,"득":948,"든":949,"듡":950,"듣":951,"들":952,"듥":953,"듦":954,"듧":955,"듨":956,"듩":957,"듪":958,"듫":959,"듬":960,"듭":961,"듯":962,"등":963,"듲":964,"듳":965,"듴":966,"듵":967,"듷":968,"듸":969,"듼":970,"딀":971,"딋":972,"딍":973,"디":974,"딕":975,"딘":976,"딛":977,"딜":978,"딝":979,"딤":980,"딥":981,"딧":982,"딨":983,"딩":984,"딪":985,"딫":986,"딬":987,"딮":988,"따":989,"딱":990,"딲":991,"딴":992,"딷":993,"딸":994,"딹":995,"땀":996,"땁":997,"땃":998,"땄":999,"땅":1000,"땈":1001,"땋":1002,"때":1003,"땍":1004,"땐":1005,"땔":1006,"땜":1007,"땝":1008,"땟":1009,"땠":1010,"땡":1011,"땨":1012,"땩":1013,"땬":1014,"땰":1015,"땸":1016,"땽":1017,"떄":1018,"떈":1019,"떔":1020,"떙":1021,"떠":1022,"떡":1023,"떢":1024,"떤":1025,"떧":1026,"떨":1027,"떫":1028,"떯":1029,"떰":1030,"떱":1031,"떳":1032,"떴":1033,"떵":1034,"떻":1035,"떼":1036,"떽":1037,"뗀":1038,"뗄":1039,"뗌":1040,"뗍":1041,"뗏":1042,"뗐":1043,"뗑":1044,"뗔":1045,"뗗":1046,"뗘":1047,"뗜":1048,"뗠":1049,"뗳":1050,"뗴":1051,"또":1052,"똑":1053,"똒":1054,"똔":1055,"똗":1056,"똘":1057,"똟":1058,"똠":1059,"똣":1060,"똥":1061,"똫":1062,"똬":1063,"똭":1064,"똴":1065,"뙇":1066,"뙈":1067,"뙤":1068,"뙨":1069,"뚀":1070,"뚕":1071,"뚜":1072,"뚝":1073,"뚠":1074,"뚣":1075,"뚤":1076,"뚫":1077,"뚯":1078,"뚱":1079,"뚷":1080,"뚸":1081,"뛔":1082,"뛧":1083,"뛰":1084,"뛴":1085,"뛸":1086,"뜀":1087,"뜁":1088,"뜌":1089,"뜡":1090,"뜨":1091,"뜩":1092,"뜬":1093,"뜯":1094,"뜰":1095,"뜷":1096,"뜸":1097,"뜹":1098,"뜻":1099,"뜽":1100,"뜾":1101,"띁":1102,"띄":1103,"띈":1104,"띌":1105,"띔":1106,"띠":1107,"띡":1108,"띤":1109,"띨":1110,"띰":1111,"띱":1112,"띵":1113,"라":1114,"락":1115,"란":1116,"랂":1117,"랃":1118,"랄":1119,"랋":1120,"람":1121,"랍":1122,"랏":1123,"랐":1124,"랑":1125,"랒":1126,"랓":1127,"랔":1128,"랕":1129,"랖":1130,"랗":1131,"래":1132,"랙":1133,"랜":1134,"랟":1135,"랠":1136,"램":1137,"랩":1138,"랫":1139,"랬":1140,"랭":1141,"랰":1142,"랲":1143,"랳":1144,"랴":1145,"략":1146,"랸":1147,"랼":1148,"럄":1149,"럇":1150,"럈":1151,"량":1152,"럐":1153,"럤":1154,"러":1155,"럭":1156,"런":1157,"럱":1158,"럲":1159,"럴":1160,"럼":1161,"럽":1162,"럾":1163,"럿":1164,"렀":1165,"렁":1166,"렂":1167,"렄":1168,"렆":1169,"렇":1170,"레":1171,"렉":1172,"렌":1173,"렐":1174,"렘":1175,"렙":1176,"렛":1177,"렜":1178,"렝":1179,"렠":1180,"렣":1181,"려":1182,"력":1183,"련":1184,"렫":1185,"렬":1186,"렴":1187,"렵":1188,"렷":1189,"렸":1190,"령":1191,"렺":1192,"렼":1193,"렿":1194,"례":1195,"롁":1196,"롄":1197,"롐":1198,"롓":1199,"롕":1200,"로":1201,"록":1202,"론":1203,"롣":1204,"롤":1205,"롬":1206,"롭":1207,"롯":1208,"롱":1209,"롲":1210,"롳":1211,"롴":1212,"롶":1213,"롷":1214,"롸":1215,"롹":1216,"롼":1217,"뢀":1218,"뢈":1219,"뢉":1220,"뢍":1221,"뢐":1222,"뢔":1223,"뢰":1224,"뢱":1225,"뢴":1226,"룁":1227,"료":1228,"룍":1229,"룐":1230,"룔":1231,"룜":1232,"룟":1233,"룡":1234,"루":1235,"룩":1236,"룬":1237,"룰":1238,"룸":1239,"룹":1240,"룻":1241,"룽":1242,"뤂":1243,"뤄":1244,"뤈":1245,"뤌":1246,"뤗":1247,"뤘":1248,"뤠":1249,"뤡":1250,"뤼":1251,"륀":1252,"륄":1253,"륍":1254,"류":1255,"륙":1256,"륜":1257,"률":1258,"륨":1259,"륭":1260,"르":1261,"륵":1262,"른":1263,"륻":1264,"를":1265,"릂":1266,"름":1267,"릅":1268,"릇":1269,"릉":1270,"릊":1271,"릌":1272,"릍":1273,"릎":1274,"릏":1275,"릐":1276,"릔":1277,"릫":1278,"리":1279,"릭":1280,"린":1281,"릳":1282,"릴":1283,"림":1284,"립":1285,"릿":1286,"맀":1287,"링":1288,"맂":1289,"맄":1290,"맆":1291,"맇":1292,"마":1293,"막":1294,"맊":1295,"만":1296,"맍":1297,"많":1298,"맏":1299,"말":1300,"맑":1301,"맔":1302,"맗":1303,"맘":1304,"맙":1305,"맛":1306,"맜":1307,"망":1308,"맞":1309,"맟":1310,"맠":1311,"맡":1312,"맢":1313,"맣":1314,"매":1315,"맥":1316,"맨":1317,"맬":1318,"맴":1319,"맵":1320,"맷":1321,"맸":1322,"맹":1323,"맺":1324,"맻":1325,"맼":1326,"맽":1327,"먀":1328,"먁":1329,"먄":1330,"먆":1331,"먈":1332,"먕":1333,"먖":1334,"먗":1335,"먜":1336,"머":1337,"먹":1338,"먺":1339,"먼":1340,"먽":1341,"먾":1342,"먿":1343,"멀":1344,"멈":1345,"멉":1346,"멊":1347,"멋":1348,"멌":1349,"멍":1350,"멎":1351,"멏":1352,"멐":1353,"멓":1354,"메":1355,"멕":1356,"멘":1357,"멜":1358,"멤":1359,"멧":1360,"멨":1361,"멩":1362,"며":1363,"멱":1364,"면":1365,"멵":1366,"멸":1367,"몀":1368,"몃":1369,"몄":1370,"명":1371,"몆":1372,"몇":1373,"몈":1374,"몋":1375,"몌":1376,"몐":1377,"몡":1378,"몣":1379,"모":1380,"목":1381,"몪":1382,"몫":1383,"몬":1384,"몯":1385,"몰":1386,"몱":1387,"몴":1388,"몸":1389,"몹":1390,"못":1391,"몼":1392,"몽":1393,"몾":1394,"몿":1395,"뫃":1396,"뫄":1397,"뫈":1398,"뫌":1399,"뫙":1400,"뫠":1401,"뫼":1402,"묏":1403,"묘":1404,"묙":1405,"묜":1406,"묠":1407,"묫":1408,"묭":1409,"무":1410,"묵":1411,"묶":1412,"묷":1413,"문":1414,"묹":1415,"묻":1416,"물":1417,"묽":1418,"뭄":1419,"뭅":1420,"뭇":1421,"뭉":1422,"뭊":1423,"뭌":1424,"뭍":1425,"뭏":1426,"뭐":1427,"뭑":1428,"뭔":1429,"뭘":1430,"뭠":1431,"뭡":1432,"뭣":1433,"뭤":1434,"뭥":1435,"뭨":1436,"뭫":1437,"뭬":1438,"뭰":1439,"뮈":1440,"뮌":1441,"뮐":1442,"뮙":1443,"뮛":1444,"뮝":1445,"뮤":1446,"뮥":1447,"뮨":1448,"뮬":1449,"뮴":1450,"뮷":1451,"뮹":1452,"므":1453,"믁":1454,"믄":1455,"믇":1456,"믈":1457,"믐":1458,"믓":1459,"믕":1460,"믜":1461,"믠":1462,"미":1463,"믹":1464,"민":1465,"믽":1466,"믾":1467,"믿":1468,"밀":1469,"밈":1470,"밉":1471,"밋":1472,"밌":1473,"밍":1474,"밎":1475,"및":1476,"밐":1477,"밑":1478,"밓":1479,"바":1480,"박":1481,"밖":1482,"반":1483,"받":1484,"발":1485,"밝":1486,"밞":1487,"밟":1488,"밠":1489,"밢":1490,"밣":1491,"밤":1492,"밥":1493,"밦":1494,"밧":1495,"밨":1496,"방":1497,"밪":1498,"밫":1499,"밬":1500,"밭":1501,"밮":1502,"밯":1503,"배":1504,"백":1505,"밴":1506,"밷":1507,"밸":1508,"뱀":1509,"뱁":1510,"뱃":1511,"뱄":1512,"뱅":1513,"뱆":1514,"뱉":1515,"뱌":1516,"뱍":1517,"뱐":1518,"뱓":1519,"뱔":1520,"뱜":1521,"뱝":1522,"뱡":1523,"뱨":1524,"뱸":1525,"뱽":1526,"버":1527,"벅":1528,"벆":1529,"번":1530,"벋":1531,"벌":1532,"벍":1533,"벓":1534,"범":1535,"법":1536,"벗":1537,"벙":1538,"벚":1539,"벛":1540,"벝":1541,"벞":1542,"베":1543,"벡":1544,"벤":1545,"벧":1546,"벨":1547,"벰":1548,"벱":1549,"벳":1550,"벴":1551,"벵":1552,"벸":1553,"벹":1554,"벼":1555,"벽":1556,"변":1557,"별":1558,"볌":1559,"볍":1560,"볏":1561,"볐":1562,"병":1563,"볓":1564,"볔":1565,"볕":1566,"볗":1567,"볘":1568,"볜":1569,"볭":1570,"보":1571,"복":1572,"볶":1573,"본":1574,"볻":1575,"볼":1576,"볾":1577,"봄":1578,"봅":1579,"봇":1580,"봉":1581,"봊":1582,"봌":1583,"봍":1584,"봏":1585,"봐":1586,"봑":1587,"봔":1588,"봗":1589,"봘":1590,"봟":1591,"봡":1592,"봣":1593,"봤":1594,"봥":1595,"봨":1596,"봫":1597,"봬":1598,"뵀":1599,"뵁":1600,"뵈":1601,"뵌":1602,"뵐":1603,"뵙":1604,"뵜":1605,"뵤":1606,"뵨":1607,"뵵":1608,"뵹":1609,"부":1610,"북":1611,"붂":1612,"붃":1613,"분":1614,"붇":1615,"불":1616,"붉":1617,"붋":1618,"붏":1619,"붐":1620,"붑":1621,"붓":1622,"붕":1623,"붖":1624,"붘":1625,"붙":1626,"붚":1627,"붛":1628,"붜":1629,"붠":1630,"붤":1631,"붱":1632,"붸":1633,"붹":1634,"뷀":1635,"뷁":1636,"뷍":1637,"뷔":1638,"뷘":1639,"뷩":1640,"뷰":1641,"뷱":1642,"뷴":1643,"뷸":1644,"븀":1645,"븁":1646,"븅":1647,"븉":1648,"브":1649,"븍":1650,"븐":1651,"블":1652,"븜":1653,"븝":1654,"븟":1655,"븡":1656,"븥":1657,"븨":1658,"븩":1659,"븬":1660,"븰":1661,"븹":1662,"븽":1663,"비":1664,"빅":1665,"빆":1666,"빈":1667,"빋":1668,"빌":1669,"빍":1670,"빔":1671,"빕":1672,"빗":1673,"빙":1674,"빚":1675,"빛":1676,"빝":1677,"빟":1678,"빠":1679,"빡":1680,"빢":1681,"빤":1682,"빧":1683,"빨":1684,"빩":1685,"빬":1686,"빯":1687,"빰":1688,"빱":1689,"빳":1690,"빴":1691,"빵":1692,"빸":1693,"빻":1694,"빼":1695,"빽":1696,"뺀":1697,"뺃":1698,"뺄":1699,"뺌":1700,"뺍":1701,"뺏":1702,"뺐":1703,"뺑":1704,"뺒":1705,"뺕":1706,"뺘":1707,"뺙":1708,"뺜":1709,"뺠":1710,"뺨":1711,"뺭":1712,"뺴":1713,"뺵":1714,"뺸":1715,"뻇":1716,"뻈":1717,"뻉":1718,"뻐":1719,"뻑":1720,"뻔":1721,"뻗":1722,"뻘":1723,"뻠":1724,"뻡":1725,"뻣":1726,"뻤":1727,"뻥":1728,"뻩":1729,"뻬":1730,"뻭":1731,"뻰":1732,"뻴":1733,"뻿":1734,"뼁":1735,"뼈":1736,"뼉":1737,"뼌":1738,"뼘":1739,"뼛":1740,"뼜":1741,"뼝":1742,"뼤":1743,"뽀":1744,"뽁":1745,"뽂":1746,"뽄":1747,"뽈":1748,"뽐":1749,"뽑":1750,"뽕":1751,"뽚":1752,"뽜":1753,"뽝":1754,"뽤":1755,"뽱":1756,"뾰":1757,"뿅":1758,"뿌":1759,"뿍":1760,"뿐":1761,"뿔":1762,"뿕":1763,"뿜":1764,"뿝":1765,"뿟":1766,"뿡":1767,"쀄":1768,"쀍":1769,"쀼":1770,"쁀":1771,"쁑":1772,"쁘":1773,"쁜":1774,"쁠":1775,"쁨":1776,"쁩":1777,"삐":1778,"삑":1779,"삔":1780,"삘":1781,"삣":1782,"삤":1783,"삥":1784,"사":1785,"삭":1786,"삮":1787,"삯":1788,"산":1789,"삲":1790,"삳":1791,"살":1792,"삵":1793,"삶":1794,"삷":1795,"삻":1796,"삼":1797,"삽":1798,"삿":1799,"샀":1800,"상":1801,"샂":1802,"샄":1803,"샅":1804,"샆":1805,"샇":1806,"새":1807,"색":1808,"샊":1809,"샋":1810,"샌":1811,"샎":1812,"샏":1813,"샐":1814,"샑":1815,"샕":1816,"샘":1817,"샙":1818,"샛":1819,"샜":1820,"생":1821,"샞":1822,"샠":1823,"샡":1824,"샣":1825,"샤":1826,"샥":1827,"샨":1828,"샬":1829,"샴":1830,"샵":1831,"샷":1832,"샸":1833,"샹":1834,"샼":1835,"샾":1836,"섀":1837,"섁":1838,"섂":1839,"섄":1840,"섕":1841,"섘":1842,"서":1843,"석":1844,"섞":1845,"선":1846,"섡":1847,"섣":1848,"설":1849,"섥":1850,"섬":1851,"섭":1852,"섮":1853,"섯":1854,"섰":1855,"성":1856,"섲":1857,"섴":1858,"섵":1859,"섶":1860,"섷":1861,"세":1862,"섹":1863,"섺":1864,"섻":1865,"센":1866,"섿":1867,"셀":1868,"셈":1869,"셉":1870,"셋":1871,"셌":1872,"셍":1873,"셐":1874,"셑":1875,"셓":1876,"셔":1877,"셕":1878,"션":1879,"셜":1880,"셤":1881,"셥":1882,"셧":1883,"셨":1884,"셩":1885,"셯":1886,"셰":1887,"셱":1888,"셲":1889,"셴":1890,"셸":1891,"솄":1892,"솅":1893,"솈":1894,"소":1895,"속":1896,"솎":1897,"손":1898,"솓":1899,"솔":1900,"솜":1901,"솝":1902,"솟":1903,"송":1904,"솤":1905,"솥":1906,"솨":1907,"솩":1908,"솬":1909,"솰":1910,"솼":1911,"솽":1912,"쇄":1913,"쇅":1914,"쇆":1915,"쇗":1916,"쇙":1917,"쇜":1918,"쇠":1919,"쇡":1920,"쇤":1921,"쇳":1922,"쇼":1923,"쇽":1924,"숀":1925,"숄":1926,"숍":1927,"숏":1928,"숑":1929,"숖":1930,"수":1931,"숙":1932,"순":1933,"숟":1934,"술":1935,"숨":1936,"숩":1937,"숫":1938,"숭":1939,"숮":1940,"숯":1941,"숰":1942,"숱":1943,"숲":1944,"숳":1945,"숴":1946,"숵":1947,"숸":1948,"숼":1949,"쉅":1950,"쉈":1951,"쉉":1952,"쉌":1953,"쉐":1954,"쉑":1955,"쉒":1956,"쉓":1957,"쉔":1958,"쉘":1959,"쉙":1960,"쉡":1961,"쉣":1962,"쉥":1963,"쉨":1964,"쉬":1965,"쉭":1966,"쉰":1967,"쉴":1968,"쉼":1969,"쉽":1970,"쉿":1971,"슁":1972,"슄":1973,"슆":1974,"슈":1975,"슉":1976,"슌":1977,"슐":1978,"슘":1979,"슙":1980,"슛":1981,"슝":1982,"스":1983,"슥":1984,"슨":1985,"슬":1986,"슭":1987,"슴":1988,"습":1989,"슷":1990,"승":1991,"슺":1992,"슼":1993,"슾":1994,"슿":1995,"싀":1996,"싁":1997,"싄":1998,"싈":1999,"싑":2000,"싕":2001,"시":2002,"식":2003,"싞":2004,"신":2005,"싡":2006,"싢":2007,"싣":2008,"실":2009,"싥":2010,"싦":2011,"싨":2012,"싪":2013,"싫":2014,"심":2015,"십":2016,"싮":2017,"싯":2018,"싰":2019,"싱":2020,"싲":2021,"싳":2022,"싴":2023,"싵":2024,"싶":2025,"싷":2026,"싸":2027,"싹":2028,"싺":2029,"싼":2030,"쌀":2031,"쌂":2032,"쌈":2033,"쌉":2034,"쌋":2035,"쌌":2036,"쌍":2037,"쌓":2038,"쌔":2039,"쌕":2040,"쌖":2041,"쌘":2042,"쌜":2043,"쌤":2044,"쌥":2045,"쌧":2046,"쌨":2047,"쌩":2048,"쌬":2049,"쌰":2050,"쌱":2051,"쌴":2052,"썁":2053,"썅":2054,"썌":2055,"썡":2056,"써":2057,"썩":2058,"썪":2059,"썬":2060,"썰":2061,"썸":2062,"썹":2063,"썻":2064,"썼":2065,"썽":2066,"쎀":2067,"쎃":2068,"쎄":2069,"쎅":2070,"쎆":2071,"쎈":2072,"쎌":2073,"쎔":2074,"쎕":2075,"쎗":2076,"쎘":2077,"쎙":2078,"쎜":2079,"쎠":2080,"쎡":2081,"쎤":2082,"쎴":2083,"쎵":2084,"쎼":2085,"쎾":2086,"쏀":2087,"쏘":2088,"쏙":2089,"쏜":2090,"쏟":2091,"쏠":2092,"쏨":2093,"쏩":2094,"쏫":2095,"쏭":2096,"쏱":2097,"쏳":2098,"쏴":2099,"쏵":2100,"쏼":2101,"쐇":2102,"쐈":2103,"쐉":2104,"쐐":2105,"쐑":2106,"쐨":2107,"쐬":2108,"쐭":2109,"쐰":2110,"쐴":2111,"쐽":2112,"쑈":2113,"쑝":2114,"쑤":2115,"쑥":2116,"쑨":2117,"쑬":2118,"쑴":2119,"쑵":2120,"쑹":2121,"쒀":2122,"쒔":2123,"쒜":2124,"쒝":2125,"쒞":2126,"쒯":2127,"쒰":2128,"쒴":2129,"쒸":2130,"쒹":2131,"쒼":2132,"쓉":2133,"쓒":2134,"쓔":2135,"쓤":2136,"쓥":2137,"쓩":2138,"쓰":2139,"쓱":2140,"쓴":2141,"쓸":2142,"씀":2143,"씁":2144,"씃":2145,"씅":2146,"씉":2147,"씌":2148,"씐":2149,"씝":2150,"씞":2151,"씦":2152,"씨":2153,"씩":2154,"씪":2155,"씬":2156,"씯":2157,"씰":2158,"씳":2159,"씸":2160,"씹":2161,"씺":2162,"씻":2163,"씼":2164,"씽":2165,"씾":2166,"앀":2167,"앂":2168,"앃":2169,"아":2170,"악":2171,"앆":2172,"안":2173,"앉":2174,"않":2175,"앋":2176,"알":2177,"앍":2178,"앎":2179,"앏":2180,"앐":2181,"앓":2182,"암":2183,"압":2184,"앖":2185,"앗":2186,"았":2187,"앙":2188,"앚":2189,"앛":2190,"앜":2191,"앝":2192,"앞":2193,"앟":2194,"애":2195,"액":2196,"앢":2197,"앤":2198,"앨":2199,"앰":2200,"앱":2201,"앲":2202,"앳":2203,"앴":2204,"앵":2205,"앸":2206,"야":2207,"약":2208,"얀":2209,"얂":2210,"얃":2211,"얄":2212,"얇":2213,"얊":2214,"얌":2215,"얍":2216,"얏":2217,"얐":2218,"양":2219,"얒":2220,"얔":2221,"얕":2222,"얖":2223,"얗":2224,"얘":2225,"얙":2226,"얜":2227,"얠":2228,"얨":2229,"얫":2230,"얭":2231,"어":2232,"억":2233,"얶":2234,"얷":2235,"언":2236,"얹":2237,"얺":2238,"얻":2239,"얼":2240,"얽":2241,"얾":2242,"엃":2243,"엄":2244,"업":2245,"없":2246,"엇":2247,"었":2248,"엉":2249,"엊":2250,"엌":2251,"엍":2252,"엎":2253,"엏":2254,"에":2255,"엑":2256,"엔":2257,"엗":2258,"엘":2259,"엠":2260,"엡":2261,"엢":2262,"엣":2263,"엤":2264,"엥":2265,"엦":2266,"엨":2267,"엪":2268,"여":2269,"역":2270,"엮":2271,"엯":2272,"연":2273,"엳":2274,"열":2275,"엷":2276,"염":2277,"엽":2278,"엾":2279,"엿":2280,"였":2281,"영":2282,"옂":2283,"옃":2284,"옄":2285,"옅":2286,"옆":2287,"옇":2288,"예":2289,"옉":2290,"옌":2291,"옐":2292,"옘":2293,"옙":2294,"옛":2295,"옜":2296,"옝":2297,"오":2298,"옥":2299,"온":2300,"옪":2301,"옫":2302,"올":2303,"옭":2304,"옮":2305,"옯":2306,"옰":2307,"옳":2308,"옴":2309,"옵":2310,"옶":2311,"옷":2312,"옸":2313,"옹":2314,"옺":2315,"옻":2316,"옼":2317,"옽":2318,"옿":2319,"와":2320,"왁":2321,"완":2322,"왈":2323,"왐":2324,"왑":2325,"왓":2326,"왔":2327,"왕":2328,"왘":2329,"왚":2330,"왛":2331,"왜":2332,"왝":2333,"왠":2334,"왤":2335,"왰":2336,"왱":2337,"왴":2338,"외":2339,"왹":2340,"왼":2341,"욀":2342,"욋":2343,"욌":2344,"욍":2345,"요":2346,"욕":2347,"욘":2348,"욛":2349,"욜":2350,"욤":2351,"욥":2352,"욧":2353,"욨":2354,"용":2355,"욪":2356,"욬":2357,"욮":2358,"욯":2359,"우":2360,"욱":2361,"운":2362,"욷":2363,"울":2364,"욹":2365,"욺":2366,"욿":2367,"움":2368,"웁":2369,"웂":2370,"웃":2371,"웄":2372,"웅":2373,"웆":2374,"웈":2375,"워":2376,"웍":2377,"원":2378,"웑":2379,"웓":2380,"월":2381,"웛":2382,"웜":2383,"웝":2384,"웟":2385,"웠":2386,"웡":2387,"웤":2388,"웧":2389,"웨":2390,"웩":2391,"웬":2392,"웰":2393,"웸":2394,"웹":2395,"웽":2396,"윀":2397,"위":2398,"윅":2399,"윈":2400,"윌":2401,"윔":2402,"윕":2403,"윗":2404,"윘":2405,"윙":2406,"유":2407,"육":2408,"윤":2409,"율":2410,"윰":2411,"윱":2412,"윳":2413,"융":2414,"윷":2415,"윸":2416,"으":2417,"윽":2418,"윾":2419,"은":2420,"읁":2421,"읂":2422,"읃":2423,"을":2424,"읅":2425,"읆":2426,"읇":2427,"읉":2428,"읊":2429,"읋":2430,"음":2431,"읍":2432,"읎":2433,"읏":2434,"읐":2435,"응":2436,"읒":2437,"읔":2438,"읕":2439,"읖":2440,"읗":2441,"의":2442,"읙":2443,"읜":2444,"읠":2445,"읨":2446,"읫":2447,"읭":2448,"읮":2449,"읰":2450,"이":2451,"익":2452,"읶":2453,"인":2454,"읹":2455,"읺":2456,"읻":2457,"일":2458,"읽":2459,"읾":2460,"읿":2461,"잀":2462,"잂":2463,"잃":2464,"임":2465,"입":2466,"잆":2467,"잇":2468,"있":2469,"잉":2470,"잊":2471,"잋":2472,"잌":2473,"잍":2474,"잎":2475,"잏":2476,"자":2477,"작":2478,"잔":2479,"잕":2480,"잖":2481,"잗":2482,"잘":2483,"잚":2484,"잛":2485,"잟":2486,"잠":2487,"잡":2488,"잢":2489,"잣":2490,"잤":2491,"장":2492,"잦":2493,"잧":2494,"잨":2495,"잩":2496,"잪":2497,"잫":2498,"재":2499,"잭":2500,"잰":2501,"잴":2502,"잼":2503,"잽":2504,"잿":2505,"쟀":2506,"쟁":2507,"쟂":2508,"쟈":2509,"쟉":2510,"쟌":2511,"쟎":2512,"쟐":2513,"쟙":2514,"쟛":2515,"쟜":2516,"쟝":2517,"쟞":2518,"쟤":2519,"쟨":2520,"쟬":2521,"쟹":2522,"저":2523,"적":2524,"전":2525,"젅":2526,"젆":2527,"젇":2528,"절":2529,"젉":2530,"젊":2531,"젋":2532,"젎":2533,"젏":2534,"점":2535,"접":2536,"젓":2537,"젔":2538,"정":2539,"젖":2540,"젗":2541,"젘":2542,"젙":2543,"젛":2544,"제":2545,"젝":2546,"젠":2547,"젤":2548,"젬":2549,"젭":2550,"젯":2551,"젰":2552,"젱":2553,"젲":2554,"젴":2555,"져":2556,"젹":2557,"젼":2558,"젿":2559,"졀":2560,"졈":2561,"졉":2562,"졋":2563,"졌":2564,"졍":2565,"졎":2566,"졐":2567,"졑":2568,"졓":2569,"졔":2570,"졘":2571,"조":2572,"족":2573,"졲":2574,"졳":2575,"존":2576,"졵":2577,"졷":2578,"졸":2579,"졻":2580,"좀":2581,"좁":2582,"좂":2583,"좃":2584,"좄":2585,"종":2586,"좆":2587,"좇":2588,"좈":2589,"좉":2590,"좊":2591,"좋":2592,"좌":2593,"좍":2594,"좐":2595,"좔":2596,"좝":2597,"좟":2598,"좠":2599,"좡":2600,"좢":2601,"좦":2602,"좨":2603,"좸":2604,"좽":2605,"죄":2606,"죅":2607,"죈":2608,"죌":2609,"죕":2610,"죗":2611,"죙":2612,"죠":2613,"죡":2614,"죤":2615,"죧":2616,"죨":2617,"죰":2618,"죱":2619,"죳":2620,"죴":2621,"죵":2622,"죷":2623,"죸":2624,"죹":2625,"죻":2626,"주":2627,"죽":2628,"준":2629,"줃":2630,"줄":2631,"줌":2632,"줍":2633,"줏":2634,"중":2635,"줒":2636,"줓":2637,"줔":2638,"줕":2639,"줗":2640,"줘":2641,"줙":2642,"줜":2643,"줟":2644,"줠":2645,"줩":2646,"줫":2647,"줬":2648,"줭":2649,"줮":2650,"줯":2651,"줱":2652,"줳":2653,"줴":2654,"줸":2655,"쥐":2656,"쥑":2657,"쥔":2658,"쥘":2659,"쥡":2660,"쥣":2661,"쥤":2662,"쥥":2663,"쥬":2664,"쥭":2665,"쥰":2666,"쥴":2667,"쥼":2668,"쥽":2669,"쥿":2670,"즁":2671,"즂":2672,"즈":2673,"즉":2674,"즌":2675,"즐":2676,"즘":2677,"즙":2678,"즛":2679,"증":2680,"즞":2681,"즣":2682,"즤":2683,"즥":2684,"즨":2685,"즬":2686,"즹":2687,"지":2688,"직":2689,"진":2690,"짅":2691,"짆":2692,"짇":2693,"질":2694,"짊":2695,"짋":2696,"짏":2697,"짐":2698,"집":2699,"짒":2700,"짓":2701,"짔":2702,"징":2703,"짖":2704,"짗":2705,"짘":2706,"짙":2707,"짚":2708,"짛":2709,"짜":2710,"짝":2711,"짞":2712,"짠":2713,"짢":2714,"짤":2715,"짦":2716,"짧":2717,"짪":2718,"짬":2719,"짭":2720,"짯":2721,"짰":2722,"짱":2723,"짲":2724,"짴":2725,"째":2726,"짹":2727,"짼":2728,"쨀":2729,"쨈":2730,"쨉":2731,"쨋":2732,"쨌":2733,"쨍":2734,"쨎":2735,"쨓":2736,"쨔":2737,"쨕":2738,"쨘":2739,"쨜":2740,"쨥":2741,"쨩":2742,"쨰":2743,"쩄":2744,"쩌":2745,"쩍":2746,"쩐":2747,"쩔":2748,"쩜":2749,"쩝":2750,"쩟":2751,"쩠":2752,"쩡":2753,"쩢":2754,"쩦":2755,"쩧":2756,"쩨":2757,"쪄":2758,"쪅":2759,"쪈":2760,"쪌":2761,"쪔":2762,"쪕":2763,"쪗":2764,"쪘":2765,"쪙":2766,"쪚":2767,"쪼":2768,"쪽":2769,"쪾":2770,"쫀":2771,"쫃":2772,"쫄":2773,"쫌":2774,"쫍":2775,"쫏":2776,"쫐":2777,"쫑":2778,"쫒":2779,"쫓":2780,"쫔":2781,"쫗":2782,"쫘":2783,"쫙":2784,"쫩":2785,"쫭":2786,"쫴":2787,"쬐":2788,"쬑":2789,"쬠":2790,"쬬":2791,"쬭":2792,"쬽":2793,"쭀":2794,"쭁":2795,"쭈":2796,"쭉":2797,"쭌":2798,"쭐":2799,"쭘":2800,"쭙":2801,"쭛":2802,"쭝":2803,"쭤":2804,"쭥":2805,"쭵":2806,"쮜":2807,"쮝":2808,"쮠":2809,"쮸":2810,"쮹":2811,"쯉":2812,"쯍":2813,"쯔":2814,"쯕":2815,"쯘":2816,"쯜":2817,"쯤":2818,"쯥":2819,"쯧":2820,"쯨":2821,"쯩":2822,"쯪":2823,"쯫":2824,"쯰":2825,"찌":2826,"찍":2827,"찎":2828,"찐":2829,"찓":2830,"찔":2831,"찜":2832,"찝":2833,"찟":2834,"찡":2835,"찢":2836,"찣":2837,"찧":2838,"차":2839,"착":2840,"찬":2841,"찮":2842,"찯":2843,"찰":2844,"찷":2845,"참":2846,"찹":2847,"찻":2848,"찼":2849,"창":2850,"찾":2851,"찿":2852,"챀":2853,"챃":2854,"채":2855,"책":2856,"챈":2857,"챌":2858,"챔":2859,"챕":2860,"챗":2861,"챘":2862,"챙":2863,"챠":2864,"챡":2865,"챤":2866,"챦":2867,"챨":2868,"챰":2869,"챱":2870,"챴":2871,"챵":2872,"챽":2873,"처":2874,"척":2875,"천":2876,"첝":2877,"철":2878,"첨":2879,"첩":2880,"첫":2881,"첬":2882,"청":2883,"첮":2884,"첯":2885,"체":2886,"첵":2887,"첸":2888,"첼":2889,"쳇":2890,"쳉":2891,"쳌":2892,"쳐":2893,"쳑":2894,"쳔":2895,"쳘":2896,"쳠":2897,"쳡":2898,"쳣":2899,"쳤":2900,"쳥":2901,"쳦":2902,"쳧":2903,"쳫":2904,"쳬":2905,"초":2906,"촉":2907,"촌":2908,"촐":2909,"촘":2910,"촙":2911,"촛":2912,"총":2913,"촞":2914,"촟":2915,"촣":2916,"촤":2917,"촥":2918,"촨":2919,"촬":2920,"촴":2921,"촵":2922,"촹":2923,"쵀":2924,"최":2925,"쵝":2926,"쵤":2927,"쵸":2928,"쵼":2929,"춈":2930,"춋":2931,"춍":2932,"추":2933,"축":2934,"춘":2935,"출":2936,"춣":2937,"춤":2938,"춥":2939,"춧":2940,"충":2941,"춯":2942,"춰":2943,"춴":2944,"췁":2945,"췃":2946,"췄":2947,"췅":2948,"췌":2949,"췐":2950,"췡":2951,"취":2952,"췬":2953,"췼":2954,"췽":2955,"츄":2956,"츅":2957,"츈":2958,"츌":2959,"츙":2960,"츠":2961,"측":2962,"츤":2963,"츨":2964,"츰":2965,"츱":2966,"츳":2967,"층":2968,"츼":2969,"칀":2970,"칑":2971,"치":2972,"칙":2973,"친":2974,"칞":2975,"칠":2976,"칡":2977,"침":2978,"칩":2979,"칫":2980,"칬":2981,"칭":2982,"칮":2983,"칰":2984,"카":2985,"칵":2986,"칸":2987,"칼":2988,"캄":2989,"캅":2990,"캇":2991,"캈":2992,"캉":2993,"캌":2994,"캍":2995,"캐":2996,"캑":2997,"캔":2998,"캘":2999,"캠":3000,"캡":3001,"캣":3002,"캤":3003,"캥":3004,"캪":3005,"캬":3006,"캭":3007,"컄":3008,"컈":3009,"커":3010,"컥":3011,"컨":3012,"컫":3013,"컬":3014,"컴":3015,"컵":3016,"컷":3017,"컸":3018,"컹":3019,"컼":3020,"컽":3021,"케":3022,"켁":3023,"켄":3024,"켈":3025,"켐":3026,"켑":3027,"켓":3028,"켔":3029,"켕":3030,"켘":3031,"켙":3032,"켜":3033,"켝":3034,"켠":3035,"켤":3036,"켬":3037,"켭":3038,"켯":3039,"켰":3040,"켱":3041,"켷":3042,"켸":3043,"코":3044,"콕":3045,"콘":3046,"콜":3047,"콤":3048,"콥":3049,"콧":3050,"콩":3051,"콬":3052,"콰":3053,"콱":3054,"콴":3055,"콸":3056,"쾅":3057,"쾈":3058,"쾌":3059,"쾍":3060,"쾐":3061,"쾡":3062,"쾨":3063,"쿄":3064,"쿠":3065,"쿡":3066,"쿤":3067,"쿨":3068,"쿰":3069,"쿱":3070,"쿵":3071,"쿸":3072,"쿼":3073,"퀀":3074,"퀄":3075,"퀘":3076,"퀙":3077,"퀭":3078,"퀴":3079,"퀵":3080,"퀸":3081,"퀼":3082,"큉":3083,"큐":3084,"큘":3085,"큨":3086,"크":3087,"큭":3088,"큰":3089,"클":3090,"큼":3091,"큽":3092,"큿":3093,"킁":3094,"킄":3095,"킅":3096,"킈":3097,"킝":3098,"키":3099,"킥":3100,"킨":3101,"킬":3102,"킴":3103,"킵":3104,"킷":3105,"킹":3106,"킼":3107,"타":3108,"탁":3109,"탄":3110,"탈":3111,"탉":3112,"탐":3113,"탑":3114,"탓":3115,"탔":3116,"탕":3117,"탙":3118,"태":3119,"택":3120,"탠":3121,"탤":3122,"탬":3123,"탭":3124,"탯":3125,"탰":3126,"탱":3127,"탸":3128,"탹":3129,"탼":3130,"턀":3131,"턍":3132,"턔":3133,"터":3134,"턱":3135,"턴":3136,"털":3137,"텀":3138,"텁":3139,"텃":3140,"텄":3141,"텅":3142,"텋":3143,"테":3144,"텍":3145,"텐":3146,"텔":3147,"템":3148,"텝":3149,"텟":3150,"텡":3151,"텨":3152,"텬":3153,"텰":3154,"텻":3155,"텼":3156,"텽":3157,"톄":3158,"톈":3159,"토":3160,"톡":3161,"톤":3162,"톨":3163,"톰":3164,"톱":3165,"톳":3166,"통":3167,"톻":3168,"톼":3169,"퇀":3170,"퇄":3171,"퇘":3172,"퇫":3173,"퇬":3174,"퇴":3175,"퇸":3176,"퇼":3177,"툇":3178,"툐":3179,"툥":3180,"투":3181,"툭":3182,"툰":3183,"툴":3184,"툼":3185,"툽":3186,"퉁":3187,"퉈":3188,"퉛":3189,"퉜":3190,"퉤":3191,"퉥":3192,"퉵":3193,"퉷":3194,"퉸":3195,"튀":3196,"튄":3197,"튈":3198,"튐":3199,"튑":3200,"튓":3201,"튕":3202,"튜":3203,"튠":3204,"튤":3205,"튬":3206,"튭":3207,"튱":3208,"트":3209,"특":3210,"튼":3211,"튿":3212,"틀":3213,"틁":3214,"틅":3215,"틈":3216,"틉":3217,"틋":3218,"틍":3219,"틐":3220,"틑":3221,"틔":3222,"티":3223,"틱":3224,"틴":3225,"틸":3226,"팀":3227,"팁":3228,"팃":3229,"팅":3230,"파":3231,"팍":3232,"팎":3233,"판":3234,"팓":3235,"팔":3236,"팛":3237,"팜":3238,"팝":3239,"팟":3240,"팠":3241,"팡":3242,"팢":3243,"팤":3244,"팥":3245,"팦":3246,"패":3247,"팩":3248,"팬":3249,"팰":3250,"팸":3251,"팹":3252,"팻":3253,"팼":3254,"팽":3255,"퍀":3256,"퍄":3257,"퍅":3258,"퍈":3259,"퍌":3260,"퍙":3261,"퍠":3262,"퍼":3263,"퍽":3264,"펀":3265,"펄":3266,"펌":3267,"펍":3268,"펏":3269,"펐":3270,"펑":3271,"페":3272,"펙":3273,"펜":3274,"펠":3275,"펨":3276,"펩":3277,"펫":3278,"펭":3279,"펴":3280,"펵":3281,"편":3282,"펼":3283,"폄":3284,"폅":3285,"폇":3286,"폈":3287,"평":3288,"폐":3289,"폑":3290,"폔":3291,"폠":3292,"폥":3293,"포":3294,"폭":3295,"폰":3296,"폴":3297,"폼":3298,"폽":3299,"폿":3300,"퐁":3301,"퐈":3302,"퐉":3303,"퐌":3304,"퐐":3305,"퐝":3306,"푀":3307,"표":3308,"푝":3309,"푠":3310,"푤":3311,"푯":3312,"푱":3313,"푸":3314,"푹":3315,"푼":3316,"풀":3317,"품":3318,"풉":3319,"풋":3320,"풍":3321,"풒":3322,"풓":3323,"풔":3324,"풜":3325,"풰":3326,"퓌":3327,"퓡":3328,"퓨":3329,"퓰":3330,"퓸":3331,"퓹":3332,"퓽":3333,"프":3334,"픈":3335,"플":3336,"픔":3337,"픕":3338,"픗":3339,"픙":3340,"픠":3341,"픵":3342,"피":3343,"픽":3344,"핀":3345,"필":3346,"핌":3347,"핍":3348,"핏":3349,"핑":3350,"핓":3351,"하":3352,"학":3353,"한":3354,"핝":3355,"핞":3356,"핟":3357,"할":3358,"핡":3359,"핢":3360,"핣":3361,"핤":3362,"핥":3363,"핦":3364,"핧":3365,"함":3366,"합":3367,"핫":3368,"핬":3369,"항":3370,"핮":3371,"핰":3372,"핱":3373,"핲":3374,"핳":3375,"해":3376,"핵":3377,"핶":3378,"핸":3379,"핻":3380,"핼":3381,"햄":3382,"햅":3383,"햇":3384,"했":3385,"행":3386,"햊":3387,"햋":3388,"햌":3389,"햏":3390,"햐":3391,"햑":3392,"햔":3393,"햘":3394,"햛":3395,"햝":3396,"햟":3397,"햠":3398,"햡":3399,"햣":3400,"햤":3401,"향":3402,"햩":3403,"햬":3404,"햭":3405,"햰":3406,"햿":3407,"헀":3408,"헁":3409,"허":3410,"헉":3411,"헌":3412,"헐":3413,"험":3414,"헙":3415,"헛":3416,"헜":3417,"헝":3418,"헠":3419,"헣":3420,"헤":3421,"헥":3422,"헨":3423,"헬":3424,"헴":3425,"헷":3426,"헸":3427,"헹":3428,"헿":3429,"혀":3430,"혁":3431,"현":3432,"혈":3433,"혐":3434,"협":3435,"혓":3436,"혔":3437,"형":3438,"혜":3439,"혝":3440,"혠":3441,"혤":3442,"호":3443,"혹":3444,"혼":3445,"홀":3446,"홈":3447,"홉":3448,"홋":3449,"홍":3450,"홑":3451,"홓":3452,"화":3453,"확":3454,"환":3455,"활":3456,"홤":3457,"홥":3458,"홧":3459,"홨":3460,"황":3461,"홬":3462,"홯":3463,"홰":3464,"홱":3465,"횃":3466,"횄":3467,"횅":3468,"회":3469,"획":3470,"횐":3471,"횔":3472,"횝":3473,"횟":3474,"횡":3475,"효":3476,"횬":3477,"횽":3478,"후":3479,"훅":3480,"훈":3481,"훌":3482,"훍":3483,"훑":3484,"훓":3485,"훔":3486,"훕":3487,"훗":3488,"훙":3489,"훝":3490,"훠":3491,"훤":3492,"훨":3493,"훳":3494,"훵":3495,"훻":3496,"훼":3497,"훽":3498,"휀":3499,"휄":3500,"휏":3501,"휑":3502,"휘":3503,"휙":3504,"휜":3505,"휠":3506,"휨":3507,"휩":3508,"휭":3509,"휴":3510,"휸":3511,"휼":3512,"흄":3513,"흉":3514,"흌":3515,"흐":3516,"흑":3517,"흔":3518,"흘":3519,"흙":3520,"흠":3521,"흡":3522,"흣":3523,"흥":3524,"흨":3525,"흩":3526,"흫":3527,"희":3528,"흭":3529,"흰":3530,"흴":3531,"흽":3532,"힁":3533,"히":3534,"힉":3535,"힌":3536,"힐":3537,"힘":3538,"힙":3539,"힛":3540,"힜":3541,"힝":3542,"힣":3543,"️":3544,"％":3545,"🆘":3546,"🇦":3547,"🇨":3548,"🇪":3549,"🇬":3550,"🇭":3551,"🇮":3552,"🇯":3553,"🇰":3554,"🇱":3555,"🇳":3556,"🇵":3557,"🇷":3558,"🇸":3559,"🇹":3560,"🇺":3561,"🇼":3562,"🌀":3563,"🌄":3564,"🌈":3565,"🌊":3566,"🌋":3567,"🌍":3568,"🌎":3569,"🌏":3570,"🌑":3571,"🌕":3572,"🌙":3573,"🌚":3574,"🌛":3575,"🌜":3576,"🌝":3577,"🌞":3578,"🌟":3579,"🌧":3580,"🌩":3581,"🌰":3582,"🌱":3583,"🌵":3584,"🌶":3585,"🌷":3586,"🌸":3587,"🌹":3588,"🌺":3589,"🌻":3590,"🌼":3591,"🌽":3592,"🌾":3593,"🌿":3594,"🍀":3595,"🍁":3596,"🍂":3597,"🍃":3598,"🍄":3599,"🍅":3600,"🍆":3601,"🍇":3602,"🍈":3603,"🍉":3604,"🍊":3605,"🍋":3606,"🍌":3607,"🍎":3608,"🍏":3609,"🍑":3610,"🍒":3611,"🍓":3612,"🍔":3613,"🍖":3614,"🍚":3615,"🍝":3616,"🍞":3617,"🍬":3618,"🍭":3619,"🍰":3620,"🍳":3621,"🍴":3622,"🍺":3623,"🍻":3624,"🍼":3625,"🍾":3626,"🎀":3627,"🎁":3628,"🎂":3629,"🎃":3630,"🎄":3631,"🎆":3632,"🎇":3633,"🎈":3634,"🎉":3635,"🎊":3636,"🎋":3637,"🎌":3638,"🎗":3639,"🎙":3640,"🎤":3641,"🎧":3642,"🎬":3643,"🎭":3644,"🎯":3645,"🎴":3646,"🎵":3647,"🎶":3648,"🎷":3649,"🎸":3650,"🎹":3651,"🎺":3652,"🎼":3653,"🏃":3654,"🏅":3655,"🏇":3656,"🏈":3657,"🏓":3658,"🏮":3659,"🏴":3660,"🏻":3661,"🏼":3662,"🏽":3663,"🏾":3664,"🏿":3665,"🐀":3666,"🐁":3667,"🐂":3668,"🐃":3669,"🐄":3670,"🐅":3671,"🐆":3672,"🐇":3673,"🐈":3674,"🐉":3675,"🐍":3676,"🐎":3677,"🐏":3678,"🐑":3679,"🐒":3680,"🐓":3681,"🐔":3682,"🐕":3683,"🐖":3684,"🐗":3685,"🐙":3686,"🐛":3687,"🐜":3688,"🐝":3689,"🐟":3690,"🐣":3691,"🐤":3692,"🐥":3693,"🐦":3694,"🐧":3695,"🐨":3696,"🐩":3697,"🐫":3698,"🐭":3699,"🐮":3700,"🐯":3701,"🐰":3702,"🐱":3703,"🐳":3704,"🐴":3705,"🐵":3706,"🐶":3707,"🐷":3708,"🐸":3709,"🐹":3710,"🐺":3711,"🐻":3712,"🐼":3713,"🐽":3714,"🐾":3715,"🐿":3716,"👀":3717,"👁":3718,"👂":3719,"👃":3720,"👄":3721,"👅":3722,"👆":3723,"👇":3724,"👈":3725,"👉":3726,"👊":3727,"👋":3728,"👌":3729,"👍":3730,"👎":3731,"👏":3732,"👐":3733,"👑":3734,"👗":3735,"👘":3736,"👙":3737,"👞":3738,"👟":3739,"👣":3740,"👤":3741,"👥":3742,"👦":3743,"👧":3744,"👨":3745,"👩":3746,"👪":3747,"👫":3748,"👬":3749,"👭":3750,"👮":3751,"👯":3752,"👲":3753,"👴":3754,"👵":3755,"👶":3756,"👹":3757,"👺":3758,"👻":3759,"👼":3760,"👽":3761,"👾":3762,"👿":3763,"💀":3764,"💁":3765,"💃":3766,"💄":3767,"💊":3768,"💋":3769,"💌":3770,"💎":3771,"💏":3772,"💐":3773,"💑":3774,"💒":3775,"💓":3776,"💔":3777,"💕":3778,"💖":3779,"💗":3780,"💘":3781,"💙":3782,"💚":3783,"💛":3784,"💜":3785,"💝":3786,"💞":3787,"💟":3788,"💡":3789,"💢":3790,"💣":3791,"💤":3792,"💥":3793,"💦":3794,"💧":3795,"💨":3796,"💩":3797,"💪":3798,"💫":3799,"💯":3800,"💰":3801,"💲":3802,"💵":3803,"💸":3804,"📌":3805,"📍":3806,"📛":3807,"📢":3808,"📣":3809,"📯":3810,"📺":3811,"🔅":3812,"🔆":3813,"🔇":3814,"🔉":3815,"🔊":3816,"🔑":3817,"🔔":3818,"🔕":3819,"🔖":3820,"🔞":3821,"🔥":3822,"🔧":3823,"🔨":3824,"🔪":3825,"🔫":3826,"🔮":3827,"🔲":3828,"🔴":3829,"🔵":3830,"🔷":3831,"🔸":3832,"🔹":3833,"🔺":3834,"🔻":3835,"🕊":3836,"🕖":3837,"🕯":3838,"🕷":3839,"🕺":3840,"🖐":3841,"🖕":3842,"🖤":3843,"🗝":3844,"🗡":3845,"🗣":3846,"🗽":3847,"🗿":3848,"😀":3849,"😁":3850,"😂":3851,"😃":3852,"😄":3853,"😅":3854,"😆":3855,"😇":3856,"😈":3857,"😉":3858,"😊":3859,"😋":3860,"😌":3861,"😍":3862,"😎":3863,"😏":3864,"😐":3865,"😑":3866,"😒":3867,"😓":3868,"😔":3869,"😕":3870,"😖":3871,"😗":3872,"😘":3873,"😙":3874,"😚":3875,"😛":3876,"😜":3877,"😝":3878,"😞":3879,"😟":3880,"😠":3881,"😡":3882,"😢":3883,"😣":3884,"😤":3885,"😥":3886,"😧":3887,"😨":3888,"😩":3889,"😪":3890,"😫":3891,"😬":3892,"😭":3893,"😮":3894,"😯":3895,"😰":3896,"😱":3897,"😲":3898,"😳":3899,"😴":3900,"😵":3901,"😶":3902,"😷":3903,"😻":3904,"😽":3905,"🙂":3906,"🙃":3907,"🙄":3908,"🙅":3909,"🙆":3910,"🙇":3911,"🙈":3912,"🙉":3913,"🙊":3914,"🙋":3915,"🙌":3916,"🙏":3917,"🚀":3918,"🚁":3919,"🚅":3920,"🚑":3921,"🚔":3922,"🚗":3923,"🚢":3924,"🚨":3925,"🚩":3926,"🚫":3927,"🚴":3928,"🛎":3929,"🛑":3930,"🤐":3931,"🤑":3932,"🤒":3933,"🤓":3934,"🤔":3935,"🤕":3936,"🤗":3937,"🤘":3938,"🤚":3939,"🤛":3940,"🤜":3941,"🤝":3942,"🤞":3943,"🤟":3944,"🤠":3945,"🤡":3946,"🤢":3947,"🤣":3948,"🤤":3949,"🤥":3950,"🤦":3951,"🤧":3952,"🤨":3953,"🤩":3954,"🤪":3955,"🤫":3956,"🤬":3957,"🤭":3958,"🤮":3959,"🤯":3960,"🤰":3961,"🤴":3962,"🤷":3963,"🤸":3964,"🤺":3965,"🥀":3966,"🥁":3967,"🥇":3968,"🥊":3969,"🥒":3970,"🥕":3971,"🥖":3972,"🥚":3973,"🥥":3974,"🥰":3975,"🥳":3976,"🥴":3977,"🥵":3978,"🥶":3979,"🥺":3980,"🦀":3981,"🦁":3982,"🦅":3983,"🦆":3984,"🦇":3985,"🦉":3986,"🦊":3987,"🦋":3988,"🦍":3989,"🦜":3990,"🦝":3991,"🦠":3992,"🦮":3993,"🦴":3994,"🦶":3995,"🦺":3996,"🦼":3997,"🧐":3998,"🧟":3999,"🧠":4000,"🧡":4001,"🧢":4002,"🧨":4003,"🩸":4004,"##켜":4005,"##줄":4006,"##라":4007,"##는":4008,"##가":4009,"##보":4010,"##네":4011,"##경":4012,"##쪼":4013,"##거":4014,"##방":4015,"##군":4016,"##이":4017,"##료":4018,"##들":4019,"##다":4020,"##법":4021,"##적":4022,"##으":4023,"##카":4024,"##터":4025,"##졌":4026,"##을":4027,"##때":4028,"##도":4029,"##난":4030,"##짓":4031,"##해":4032,"##놓":4033,"##고":4034,"##느":4035,"##정":4036,"##돈":4037,"##리":4038,"##시":4039,"##요":4040,"##노":4041,"##의":4042,"##주":4043,"##5":4044,"##간":4045,"##일":4046,"##한":4047,"##태":4048,"##만":4049,"##랑":4050,"##께":4051,"##슬":4052,"##러":4053,"##바":4054,"##쒝":4055,"##히":4056,"##은":4057,"##냥":4058,"##탄":4059,"##핵":4060,"##안":4061,"##했":4062,"##면":4063,"##개":4064,"##테":4065,"##세":4066,"##계":4067,"##1":4068,"##위":4069,"##꾸":4070,"##어":4071,"##서":4072,"##맛":4073,"##집":4074,"##화":4075,"##외":4076,"##치":4077,"##며":4078,"##폭":4079,"##행":4080,"##당":4081,"##할":4082,"##꺼":4083,"##같":4084,"##아":4085,"##등":4086,"##학":4087,"##생":4088,"##재":4089,"##미":4090,"##로":4091,"##데":4092,"##성":4093,"##절":4094,"##규":4095,"##죄":4096,"##싱":4097,"##질":4098,"##장":4099,"##충":4100,"##겠":4101,"##지":4102,"##스":4103,"##트":4104,"##자":4105,"##슥":4106,"##사":4107,"##격":4108,"##까":4109,"##수":4110,"##쌍":4111,"##삶":4112,"##에":4113,"##감":4114,"##귀":4115,"##막":4116,"##식":4117,"##인":4118,"##역":4119,"##두":4120,"##렵":4121,"##않":4122,"##국":4123,"##선":4124,"##녔":4125,"##음":4126,"##쪽":4127,"##과":4128,"##파":4129,"##된":4130,"##부":4131,"##연":4132,"##쳐":4133,"##먹":4134,"##려":4135,"##나":4136,"##모":4137,"##르":4138,"##메":4139,"##대":4140,"##민":4141,"##추":4142,"##매":4143,"##야":4144,"##ㅉ":4145,"##즈":4146,"##크":4147,"##꼴":4148,"##통":4149,"##냐":4150,"##언":4151,"##준":4152,"##진":4153,"##짱":4154,"##베":4155,"##럽":4156,"##ㅋ":4157,"##악":4158,"##하":4159,"##애":4160,"##것":4161,"##찌":4162,"##동":4163,"##건":4164,"##원":4165,"##죠":4166,"##비":4167,"##마":4168,"##약":4169,"##벤":4170,"##티":4171,"##오":4172,"##되":4173,"##든":4174,"##현":4175,"##골":4176,"##프":4177,"##i":4178,"##친":4179,"##를":4180,"##덜":4181,"##달":4182,"##창":4183,"##기":4184,"##환":4185,"##뽑":4186,"##웃":4187,"##있":4188,"##신":4189,"##청":4190,"##론":4191,"##분":4192,"##열":4193,"##조":4194,"##북":4195,"##와":4196,"##종":4197,"##니":4198,"##게":4199,"##배":4200,"##삐":4201,"##운":4202,"##전":4203,"##났":4204,"##었":4205,"##술":4206,"##유":4207,"##출":4208,"##없":4209,"##업":4210,"##무":4211,"##못":4212,"##점":4213,"##넘":4214,"##올":4215,"##우":4216,"##던":4217,"##승":4218,"##례":4219,"##좃":4220,"##m":4221,"##p":4222,"##u":4223,"##l":4224,"##s":4225,"##e":4226,"##망":4227,"##구":4228,"##품":4229,"##체":4230,"##제":4231,"##복":4232,"##갱":4233,"##땅":4234,"##발":4235,"##슴":4236,"##양":4237,"##알":4238,"##공":4239,"##작":4240,"##d":4241,"##r":4242,"##a":4243,"##천":4244,"##별":4245,"##굴":4246,"##몸":4247,"##름":4248,"##끄":4249,"##움":4250,"##택":4251,"##임":4252,"##말":4253,"##몀":4254,"##새":4255,"##퀴":4256,"##뢰":4257,"##착":4258,"##왜":4259,"##껄":4260,"##쳤":4261,"##7":4262,"##0":4263,"##누":4264,"##넹":4265,"##소":4266,"##교":4267,"##명":4268,"##였":4269,"##결":4270,"##문":4271,"##날":4272,"##드":4273,"##런":4274,"##님":4275,"##중":4276,"##확":4277,"##늘":4278,"##햇":4279,"##농":4280,"##단":4281,"##받":4282,"##낼":4283,"##텐":4284,"##권":4285,"##력":4286,"##팔":4287,"##뿐":4288,"##앙":4289,"##딱":4290,"##곳":4291,"##내":4292,"##뚜":4293,"##맞":4294,"##싶":4295,"##박":4296,"##엿":4297,"##짖":4298,"##댈":4299,"##깐":4300,"##금":4301,"##표":4302,"##몹":4303,"##쓸":4304,"##압":4305,"##레":4306,"##입":4307,"##셨":4308,"##령":4309,"##떨":4310,"##혈":4311,"##ㅎ":4312,"##그":4313,"##참":4314,"##웠":4315,"##류":4316,"##돼":4317,"##변":4318,"##호":4319,"##갈":4320,"##순":4321,"##릇":4322,"##버":4323,"##람":4324,"##놈":4325,"##힐":4326,"##여":4327,"##젠":4328,"##잘":4329,"##울":4330,"##린":4331,"##옥":4332,"##월":4333,"##급":4334,"##페":4335,"##물":4336,"##관":4337,"##홀":4338,"##될":4339,"##떻":4340,"##불":4341,"##뭐":4342,"##꺵":4343,"##믿":4344,"##덥":4345,"##희":4346,"##낙":4347,"##락":4348,"##겨":4349,"##본":4350,"##뉴":4351,"##얼":4352,"##실":4353,"##뽕":4354,"##밀":4355,"##더":4356,"##욱":4357,"##워":4358,"##앤":4359,"##봐":4360,"##타":4361,"##녀":4362,"##긴":4363,"##각":4364,"##앉":4365,"##2":4366,"##G":4367,"##볼":4368,"##래":4369,"##쩐":4370,"##9":4371,"##ㅅ":4372,"##ㄲ":4373,"##써":4374,"##회":4375,"##포":4376,"##취":4377,"##센":4378,"##키":4379,"##많":4380,"##딸":4381,"##럴":4382,"##놨":4383,"##른":4384,"##최":4385,"##췬":4386,"##색":4387,"##염":4388,"##딩":4389,"##엘":4390,"##예":4391,"##댄":4392,"##편":4393,"##림":4394,"##좌":4395,"##찍":4396,"##합":4397,"##묻":4398,"##y":4399,"##j":4400,"##t":4401,"##후":4402,"##g":4403,"##o":4404,"##즌":4405,"##란":4406,"##독":4407,"##브":4408,"##상":4409,"##됩":4410,"##좀":4411,"##털":4412,"##져":4413,"##렷":4414,"##잇":4415,"##둘":4416,"##릴":4417,"##필":4418,"##줘":4419,"##영":4420,"##함":4421,"##폐":4422,"##4":4423,"##남":4424,"##힌":4425,"##돌":4426,"##존":4427,"##듯":4428,"##용":4429,"##돋":4430,"##뜻":4431,"##황":4432,"##읗":4433,"##삽":4434,"##억":4435,"##떼":4436,"##퍼":4437,"##닌":4438,"##쩌":4439,"##왔":4440,"##협":4441,"##밝":4442,"##혀":4443,"##뒤":4444,"##팡":4445,"##끼":4446,"##킹":4447,"##판":4448,"##탁":4449,"##L":4450,"##E":4451,"##D":4452,"##셔":4453,"##립":4454,"##견":4455,"##멀":4456,"##산":4457,"##🐶":4458,"##따":4459,"##눈":4460,"##설":4461,"##녁":4462,"##둬":4463,"##케":4464,"##팅":4465,"##투":4466,"##쟁":4467,"##졸":4468,"##싼":4469,"##쓰":4470,"##살":4471,"##싫":4472,"##밖":4473,"##속":4474,"##탓":4475,"##겐":4476,"##처":4477,"##롭":4478,"##강":4479,"##됬":4480,"##튼":4481,"##년":4482,"##잖":4483,"##엔":4484,"##얘":4485,"##률":4486,"##증":4487,"##저":4488,"##겼":4489,"##촌":4490,"##층":4491,"##평":4492,"##흙":4493,"##득":4494,"##차":4495,"##극":4496,"##낸":4497,"##머":4498,"##챙":4499,"##육":4500,"##쇼":4501,"##핑":4502,"##광":4503,"##목":4504,"##손":4505,"##I":4506,"##M":4507,"##F":4508,"##힘":4509,"##좋":4510,"##걸":4511,"##몰":4512,"##탱":4513,"##ㅇ":4514,"##밑":4515,"##심":4516,"##책":4517,"##랬":4518,"##벌":4519,"##겟":4520,"##8":4521,"##슨":4522,"##걱":4523,"##ㄹ":4524,"##x":4525,"##랄":4526,"##낭":4527,"##습":4528,"##찰":4529,"##쯤":4530,"##녓":4531,"##루":4532,"##션":4533,"##럼":4534,"##범":4535,"##뎌":4536,"##긋":4537,"##너":4538,"##6":4539,"##템":4540,"##혐":4541,"##O":4542,"##멸":4543,"##접":4544,"##b":4545,"##숟":4546,"##둥":4547,"##똥":4548,"##멍":4549,"##짝":4550,"##혜":4551,"##왕":4552,"##랍":4553,"##찐":4554,"##빵":4555,"##렸":4556,"##폰":4557,"##념":4558,"##뒀":4559,"##넌":4560,"##졋":4561,"##침":4562,"##묵":4563,"##좨":4564,"##련":4565,"##번":4566,"##클":4567,"##쇄":4568,"##즘":4569,"##뉘":4570,"##잔":4571,"##형":4572,"##향":4573,"##항":4574,"##킨":4575,"##랙":4576,"##험":4577,"##밥":4578,"##P":4579,"##A":4580,"##N":4581,"##큼":4582,"##길":4583,"##뻘":4584,"##블":4585,"##짤":4586,"##활":4587,"##딴":4588,"##글":4589,"##틀":4590,"##앞":4591,"##쥐":4592,"##반":4593,"##댕":4594,"##앳":4595,"##괴":4596,"##볕":4597,"##커":4598,"##코":4599,"##피":4600,"##봤":4601,"##셈":4602,"##뻔":4603,"##V":4604,"##송":4605,"##튀":4606,"##온":4607,"##눠":4608,"##징":4609,"##겄":4610,"##채":4611,"##릿":4612,"##족":4613,"##뇨":4614,"##릭":4615,"##씨":4616,"##맨":4617,"##값":4618,"##병":4619,"##빼":4620,"##획":4621,"##덕":4622,"##덩":4623,"##꼐":4624,"##뎃":4625,"##휘":4626,"##죽":4627,"##눼":4628,"##탈":4629,"##첫":4630,"##근":4631,"##댓":4632,"##3":4633,"##훈":4634,"##줬":4635,"##횡":4636,"##X":4637,"##똑":4638,"##쁜":4639,"##빨":4640,"##🔴":4641,"##n":4642,"##윗":4643,"##디":4644,"##검":4645,"##백":4646,"##빌":4647,"##ㅂ":4648,"##꽉":4649,"##둠":4650,"##숯":4651,"##촛":4652,"##갔":4653,"##뭉":4654,"##욕":4655,"##김":4656,"##싸":4657,"##춘":4658,"##밭":4659,"##쇠":4660,"##줍":4661,"##냨":4662,"##랔":4663,"##ㄱ":4664,"##쑈":4665,"##빠":4666,"##량":4667,"##럿":4668,"##혼":4669,"##잡":4670,"##닭":4671,"##찬":4672,"##꼬":4673,"##짜":4674,"##플":4675,"##납":4676,"##낫":4677,"##엄":4678,"##씩":4679,"##뷰":4680,"##탕":4681,"##콩":4682,"##익":4683,"##쩔":4684,"##몇":4685,"##렇":4686,"##척":4687,"##놀":4688,"##끌":4689,"##랴":4690,"##웅":4691,"##았":4692,"##녹":4693,"##봉":4694,"##엽":4695,"##총":4696,"##랏":4697,"##쟎":4698,"##팬":4699,"##패":4700,"##율":4701,"##얌":4702,"##뇌":4703,"##왓":4704,"##균":4705,"##륙":4706,"##쟈":4707,"##먼":4708,"##붕":4709,"##떠":4710,"##능":4711,"##듣":4712,"##틴":4713,"##헤":4714,"##직":4715,"##붙":4716,"##냔":4717,"##섭":4718,"##ㄷ":4719,"##혹":4720,"##객":4721,"##깟":4722,"##컬":4723,"##뒈":4724,"##텨":4725,"##뭔":4726,"##낌":4727,"##축":4728,"##믄":4729,"##굽":4730,"##석":4731,"##렬":4732,"##낳":4733,"##낮":4734,"##곤":4735,"##톨":4736,"##숨":4737,"##꿀":4738,"##엇":4739,"##팽":4740,"##읹":4741,"##담":4742,"##푸":4743,"##폔":4744,"##ㅈ":4745,"##넷":4746,"##겁":4747,"##철":4748,"##풀":4749,"##십":4750,"##퇘":4751,"##특":4752,"##찔":4753,"##허":4754,"##냈":4755,"##B":4756,"##낀":4757,"##엎":4758,"##콘":4759,"##섹":4760,"##멘":4761,"##닐":4762,"##맹":4763,"##😠":4764,"##맙":4765,"##k":4766,"##빈":4767,"##픽":4768,"##헌":4769,"##맘":4770,"##곡":4771,"##첩":4772,"##c":4773,"##펑":4774,"##토":4775,"##잉":4776,"##록":4777,"##칭":4778,"##❓":4779,"##듬":4780,"##읃":4781,"##줌":4782,"##즐":4783,"##퇴":4784,"##숙":4785,"##겅":4786,"##액":4787,"##됨":4788,"##잠":4789,"##빤":4790,"##봇":4791,"##젤":4792,"##초":4793,"##널":4794,"##쥬":4795,"##쉐":4796,"##턴":4797,"##섬":4798,"##땜":4799,"##쉬":4800,"##므":4801,"##앗":4802,"##늬":4803,"##찾":4804,"##퉁":4805,"##탐":4806,"##캬":4807,"##흘":4808,"##꾼":4809,"##랭":4810,"##냄":4811,"##옳":4812,"##씀":4813,"##깡":4814,"##숱":4815,"##깝":4816,"##롸":4817,"##젝":4818,"##닫":4819,"##😎":4820,"##랫":4821,"##렀":4822,"##뺏":4823,"##됐":4824,"##완":4825,"##볍":4826,"##샌":4827,"##욬":4828,"##떤":4829,"##뿌":4830,"##째":4831,"##갚":4832,"##꿔":4833,"##뜯":4834,"##뇬":4835,"##훼":4836,"##쌕":4837,"##츠":4838,"##닝":4839,"##꾹":4840,"##넣":4841,"##퉈":4842,"##꼭":4843,"##켰":4844,"##닮":4845,"##뀌":4846,"##꿰":4847,"##뚫":4848,"##좆":4849,"##T":4850,"##끝":4851,"##또":4852,"##럭":4853,"##깨":4854,"##횔":4855,"##룹":4856,"##꿈":4857,"##섂":4858,"##쑵":4859,"##돠":4860,"##깔":4861,"##껏":4862,"##멏":4863,"##푼":4864,"##랐":4865,"##짐":4866,"##🇷":4867,"##갓":4868,"##캐":4869,"##칫":4870,"##깎":4871,"##쌀":4872,"##략":4873,"##줫":4874,"##킬":4875,"##쏴":4876,"##홍":4877,"##랸":4878,"##흥":4879,"##몬":4880,"##C":4881,"##큐":4882,"##봄":4883,"##옆":4884,"##랜":4885,"##논":4886,"##녕":4887,"##➕":4888,"##❎":4889,"##빢":4890,"##몽":4891,"##숭":4892,"##뜨":4893,"##효":4894,"##놔":4895,"##🐕":4896,"##탔":4897,"##렁":4898,"##뱅":4899,"##쾌":4900,"##캉":4901,"##즤":4902,"##잃":4903,"##쌔":4904,"##렴":4905,"##즬":4906,"##흡":4907,"##웟":4908,"##첵":4909,"##w":4910,"##칙":4911,"##썩":4912,"##촉":4913,"##삭":4914,"##핏":4915,"##껑":4916,"##밎":4917,"##겹":4918,"##튜":4919,"##캠":4920,"##쓴":4921,"##옵":4922,"##봅":4923,"##읜":4924,"##ㅁ":4925,"##첨":4926,"##땡":4927,"##팸":4928,"##삼":4929,"##땃":4930,"##핫":4931,"##흔":4932,"##칠":4933,"##둔":4934,"##흠":4935,"##뭘":4936,"##숩":4937,"##걷":4938,"##쌈":4939,"##밍":4940,"##뛰":4941,"##햌":4942,"##둑":4943,"##닢":4944,"##뀔":4945,"##벼":4946,"##뎈":4947,"##쉽":4948,"##쾅":4949,"##짆":4950,"##😧":4951,"##숫":4952,"##빴":4953,"##혁":4954,"##쳣":4955,"##욘":4956,"##멋":4957,"##끈":4958,"##ㅌ":4959,"##샠":4960,"##K":4961,"##밤":4962,"##깽":4963,"##떄":4964,"##괸":4965,"##넼":4966,"##싹":4967,"##높":4968,"##벅":4969,"##콜":4970,"##빅":4971,"##🕊":4972,"##궈":4973,"##룰":4974,"##싯":4975,"##쿡":4976,"##궁":4977,"##벗":4978,"##냉":4979,"##응":4980,"##갑":4981,"##맥":4982,"##텽":4983,"##휴":4984,"##S":4985,"##퀸":4986,"##헝":4987,"##걍":4988,"##ㄴ":4989,"##톡":4990,"##곱":4991,"##R":4992,"##컵":4993,"##팩":4994,"##끊":4995,"##넨":4996,"##😂":4997,"##칩":4998,"##녆":4999,"##뛸":5000,"##램":5001,"##슙":5002,"##꽈":5003,"##꺠":5004,"##쎄":5005,"##뜰":5006,"##벨":5007,"##럄":5008,"##끗":5009,"##옷":5010,"##귝":5011,"##v":5012,"##흉":5013,"##☝":5014,"##뚱":5015,"##🔥":5016,"##풍":5017,"##덤":5018,"##샊":5019,"##씻":5020,"##딘":5021,"##혔":5022,"##텅":5023,"##똘":5024,"##찮":5025,"##뤘":5026,"##헬":5027,"##ㅆ":5028,"##답":5029,"##숀":5030,"##ㅍ":5031,"##걀":5032,"##웡":5033,"##롱":5034,"##듭":5035,"##딨":5036,"##벽":5037,"##갘":5038,"##쉑":5039,"##톤":5040,"##암":5041,"##맡":5042,"##솥":5043,"##멈":5044,"##빙":5045,"##f":5046,"##쿠":5047,"##깜":5048,"##콤":5049,"##픔":5050,"##갖":5051,"##쏘":5052,"##옹":5053,"##닦":5054,"##삘":5055,"##뗏":5056,"##밌":5057,"##땐":5058,"##됌":5059,"##잼":5060,"##셋":5061,"##앨":5062,"##💓":5063,"##엣":5064,"##️":5065,"##🆘":5066,"##괄":5067,"##됭":5068,"##측":5069,"##볗":5070,"##웤":5071,"##괘":5072,"##넺":5073,"##및":5074,"##😍":5075,"##덴":5076,"##뻐":5077,"##갸":5078,"##젓":5079,"##쫌":5080,"##귄":5081,"##썅":5082,"##떴":5083,"##컷":5084,"##껌":5085,"##뻥":5086,"##몌":5087,"##솔":5088,"##핳":5089,"##욧":5090,"##칸":5091,"##롤":5092,"##쏠":5093,"##델":5094,"##렉":5095,"##뒷":5096,"##쁨":5097,"##뤄":5098,"##킥":5099,"##놜":5100,"##셀":5101,"##텝":5102,"##겡":5103,"##늠":5104,"##♥":5105,"##껍":5106,"##윤":5107,"##뱌":5108,"##눔":5109,"##밋":5110,"##닙":5111,"##촐":5112,"##껴":5113,"##👏":5114,"##뱃":5115,"##랩":5116,"##늨":5117,"##땟":5118,"##녜":5119,"##Q":5120,"##H":5121,"##퐁":5122,"##릎":5123,"##꿇":5124,"##엥":5125,"##깁":5126,"##쩍":5127,"##뻗":5128,"##껀":5129,"##챈":5130,"##봣":5131,"##얀":5132,"##넬":5133,"##얻":5134,"##삿":5135,"##J":5136,"##떡":5137,"##콧":5138,"##깍":5139,"##뎁":5140,"##랖":5141,"##폴":5142,"##옴":5143,"##🏻":5144,"##h":5145,"##👌":5146,"##뛴":5147,"##댔":5148,"##홧":5149,"##밦":5150,"##쎈":5151,"##썼":5152,"##잎":5153,"##닥":5154,"##햐":5155,"##욤":5156,"##츄":5157,"##맏":5158,"##롬":5159,"##핼":5160,"##톰":5161,"##쯧":5162,"##늙":5163,"##즉":5164,"##눌":5165,"##퐈":5166,"##U":5167,"##폼":5168,"##댐":5169,"##잦":5170,"##슷":5171,"##뿔":5172,"##꼿":5173,"##갰":5174,"##륭":5175,"##펜":5176,"##벞":5177,"##촟":5178,"##짰":5179,"##잌":5180,"##딜":5181,"##랗":5182,"##쿱":5183,"##썬":5184,"##쎅":5185,"##뇽":5186,"##쩝":5187,"##픈":5188,"##꽂":5189,"##링":5190,"##꼼":5191,"##꺄":5192,"##섴":5193,"##ㅃ":5194,"##🖕":5195,"##W":5196,"##😡":5197,"##됫":5198,"##꼰":5199,"##땍":5200,"##쩡":5201,"##샵":5202,"##슈":5203,"##킈":5204,"##훤":5205,"##젊":5206,"##읽":5207,"##빚":5208,"##흑":5209,"##탠":5210,"##딧":5211,"##낄":5212,"##춰":5213,"##곧":5214,"##셸":5215,"##돤":5216,"##밷":5217,"##찢":5218,"##긍":5219,"##댱":5220,"##쫄":5221,"##꺽":5222,"##쌤":5223,"##훠":5224,"##셧":5225,"##켓":5226,"##켔":5227,"##🎉":5228,"##돕":5229,"##닛":5230,"##늉":5231,"##흐":5232,"##컨":5233,"##씌":5234,"##턱":5235,"##융":5236,"##빛":5237,"##앵":5238,"##샘":5239,"##쁘":5240,"##쐇":5241,"##퓨":5242,"##😫":5243,"##캔":5244,"##샏":5245,"##겉":5246,"##핡":5247,"##뼈":5248,"##셱":5249,"##샤":5250,"##틍":5251,"##엉":5252,"##촬":5253,"##❌":5254,"##👈":5255,"##엊":5256,"##앖":5257,"##뽄":5258,"##웁":5259,"##곽":5260,"##돗":5261,"##윈":5262,"##쉒":5263,"##잣":5264,"##딛":5265,"##횽":5266,"##씁":5267,"##쿄":5268,"##셉":5269,"##덯":5270,"##덮":5271,"##팀":5272,"##딲":5273,"##핬":5274,"##첬":5275,"##😭":5276,"##큰":5277,"##댁":5278,"##셐":5279,"##꼽":5280,"##갤":5281,"##낯":5282,"##끠":5283,"##끔":5284,"##🌟":5285,"##💙":5286,"##븐":5287,"##끍":5288,"##엤":5289,"##뱉":5290,"##ㄸ":5291,"##쩨":5292,"##띠":5293,"##춥":5294,"##닼":5295,"##끓":5296,"##핰":5297,"##떳":5298,"##뵈":5299,"##듦":5300,"##웨":5301,"##촞":5302,"##붤":5303,"##룸":5304,"##괭":5305,"##껐":5306,"##뗴":5307,"##졎":5308,"##셜":5309,"##쓱":5310,"##뎀":5311,"##뜸":5312,"##빽":5313,"##왈":5314,"##읍":5315,"##썹":5316,"##툼":5317,"##쿵":5318,"##듀":5319,"##냬":5320,"##륜":5321,"##빡":5322,"##됄":5323,"##앱":5324,"##깊":5325,"##컴":5326,"##즁":5327,"##🇺":5328,"##🇸":5329,"##긔":5330,"##뷔":5331,"##핞":5332,"##즹":5333,"##팍":5334,"##틈":5335,"##텔":5336,"##뺌":5337,"##옛":5338,"##쟌":5339,"##곈":5340,"##얄":5341,"##🐆":5342,"##뻑":5343,"##탭":5344,"##🐷":5345,"##🐖":5346,"##젱":5347,"##섯":5348,"##춤":5349,"##👍":5350,"##붓":5351,"##쿨":5352,"##댜":5353,"##싄":5354,"##ㅊ":5355,"##꽥":5356,"##멤":5357,"##젖":5358,"##펀":5359,"##뚝":5360,"##쑤":5361,"##룩":5362,"##텍":5363,"##샀":5364,"##틸":5365,"##팠":5366,"##펭":5367,"##굶":5368,"##뤈":5369,"##젼":5370,"##숴":5371,"##샛":5372,"##🚁":5373,"##🚀":5374,"##텡":5375,"##귤":5376,"##팝":5377,"##힙":5378,"##헉":5379,"##헸":5380,"##옌":5381,"##렌":5382,"##섰":5383,"##룬":5384,"##꼈":5385,"##펫":5386,"##맣":5387,"##똴":5388,"##촤":5389,"##얹":5390,"##뎨":5391,"##겸":5392,"##둡":5393,"##옉":5394,"##룡":5395,"##뷸":5396,"##갠":5397,"##갼":5398,"##뤠":5399,"##짘":5400,"##씬":5401,"##핦":5402,"##홈":5403,"##핥":5404,"##욌":5405,"##틱":5406,"##씸":5407,"##읎":5408,"##밟":5409,"##켠":5410,"##묘":5411,"##겤":5412,"##굳":5413,"##곁":5414,"##샨":5415,"##죈":5416,"##밴":5417,"##삥":5418,"##쉰":5419,"##몿":5420,"##♂":5421,"##헐":5422,"##벙":5423,"##퍽":5424,"##훔":5425,"##렝":5426,"##껒":5427,"##꽌":5428,"##뫼":5429,"##꼳":5430,"##잏":5431,"##🤬":5432,"##켈":5433,"##💚":5434,"##💟":5435,"##💖":5436,"##💞":5437,"##💗":5438,"##💕":5439,"##💜":5440,"##셍":5441,"##몃":5442,"##겪":5443,"##뤼":5444,"##핮":5445,"##썽":5446,"##쭉":5447,"##쨰":5448,"##퐐":5449,"##뱀":5450,"##쁠":5451,"##쉴":5452,"##꿍":5453,"##💥":5454,"##쪄":5455,"##붉":5456,"##냅":5457,"##졷":5458,"##갯":5459,"##츰":5460,"##뵤":5461,"##꽃":5462,"##띄":5463,"##섀":5464,"##쫑":5465,"##엨":5466,"##엌":5467,"##😚":5468,"##낰":5469,"##멎":5470,"##🇰":5471,"##캡":5472,"##슐":5473,"##쌓":5474,"##쏟":5475,"##💯":5476,"##떵":5477,"##탉":5478,"##릅":5479,"##꿁":5480,"##쪙":5481,"##q":5482,"##괜":5483,"##셩":5484,"##뗘":5485,"##탑":5486,"##딪":5487,"##듈":5488,"##긧":5489,"##짚":5490,"##뺄":5491,"##Y":5492,"##젔":5493,"##벵":5494,"##핧":5495,"##앓":5496,"##😢":5497,"##솟":5498,"##궤":5499,"##펙":5500,"##븅":5501,"##뒺":5502,"##닳":5503,"##잫":5504,"##꽁":5505,"##뱔":5506,"##뎅":5507,"##뭇":5508,"##씹":5509,"##컫":5510,"##죗":5511,"##됀":5512,"##맺":5513,"##묶":5514,"##킴":5515,"##셰":5516,"##밸":5517,"##굼":5518,"##혓":5519,"##됏":5520,"##✋":5521,"##숑":5522,"##헥":5523,"##씐":5524,"##헹":5525,"##잤":5526,"##찜":5527,"##넛":5528,"##튕":5529,"##😬":5530,"##볶":5531,"##❤":5532,"##펴":5533,"##핀":5534,"##흰":5535,"##끙":5536,"##닿":5537,"##찹":5538,"##잨":5539,"##깻":5540,"##샷":5541,"##😄":5542,"##뜬":5543,"##릉":5544,"##겋":5545,"##😝":5546,"##롯":5547,"##쥑":5548,"##꾜":5549,"##슝":5550,"##🇳":5551,"##엑":5552,"##샄":5553,"##뀐":5554,"##컸":5555,"##칵":5556,"##칼":5557,"##졔":5558,"##🙇":5559,"##왝":5560,"##🏽":5561,"##♀":5562,"##튄":5563,"##🇵":5564,"##뜩":5565,"##잊":5566,"##닷":5567,"##z":5568,"##좁":5569,"##셕":5570,"##켄":5571,"##걔":5572,"##얷":5573,"##뵌":5574,"##샴":5575,"##죵":5576,"##폄":5577,"##맷":5578,"##띨":5579,"##😃":5580,"##🌸":5581,"##🌼":5582,"##캄":5583,"##죌":5584,"##읶":5585,"##👉":5586,"##쌌":5587,"##겔":5588,"##얔":5589,"##뱄":5590,"##쵝":5591,"##궜":5592,"##샙":5593,"##귈":5594,"##빳":5595,"##먄":5596,"##헴":5597,"##렘":5598,"##돔":5599,"##룻":5600,"##횟":5601,"##펠":5602,"##뗀":5603,"##꿋":5604,"##찻":5605,"##썻":5606,"##팼":5607,"##넸":5608,"##뤌":5609,"##긂":5610,"##밬":5611,"##곀":5612,"##빰":5613,"##웹":5614,"##넝":5615,"##긁":5616,"##👿":5617,"##믹":5618,"##넴":5619,"##넥":5620,"##팟":5621,"##헨":5622,"##닉":5623,"##뮬":5624,"##퐉":5625,"##킵":5626,"##띁":5627,"##윔":5628,"##탤":5629,"##떙":5630,"##💢":5631,"##몾":5632,"##쳔":5633,"##봨":5634,"##핣":5635,"##꿉":5636,"##쥭":5637,"##쭤":5638,"##쮸":5639,"##쎼":5640,"##밧":5641,"##랼":5642,"##샥":5643,"##뻣":5644,"##섞":5645,"##퍅":5646,"##늄":5647,"##😱":5648,"##깅":5649,"##헛":5650,"##륨":5651,"##쥥":5652,"##💐":5653,"##챵":5654,"##헙":5655,"##랰":5656,"##긑":5657,"##늦":5658,"##젭":5659,"##멊":5660,"##죡":5661,"##벚":5662,"##휠":5663,"##늕":5664,"##녴":5665,"##돛":5666,"##😣":5667,"##싀":5668,"##☺":5669,"##겻":5670,"##톈":5671,"##멜":5672,"##렛":5673,"##쬐":5674,"##🔞":5675,"##쩜":5676,"##듄":5677,"##륵":5678,"##텃":5679,"##몫":5680,"##헷":5681,"##😑":5682,"##훌":5683,"##덟":5684,"##싣":5685,"##즙":5686,"##🌺":5687,"##🍑":5688,"##💪":5689,"##붇":5690,"##툽":5691,"##곷":5692,"##쌩":5693,"##붜":5694,"##줜":5695,"##빔":5696,"##쨀":5697,"##눕":5698,"##챦":5699,"##죤":5700,"##👃":5701,"##퓰":5702,"##궐":5703,"##캤":5704,"##싥":5705,"##귾":5706,"##솬":5707,"##🐦":5708,"##🗝":5709,"##깃":5710,"##덧":5711,"##쨔":5712,"##곬":5713,"##땀":5714,"##렺":5715,"##엮":5716,"##릳":5717,"##펨":5718,"##툐":5719,"##죙":5720,"##룍":5721,"##쥔":5722,"##갭":5723,"##잰":5724,"##녘":5725,"##킁":5726,"##컥":5727,"##끤":5728,"##쉅":5729,"##잆":5730,"##넵":5731,"##둿":5732,"##냇":5733,"##🔊":5734,"##✊":5735,"##얏":5736,"##샎":5737,"##븍":5738,"##굿":5739,"##슘":5740,"##쒸":5741,"##뫌":5742,"##켯":5743,"##퀵":5744,"##샹":5745,"##헀":5746,"##쉔":5747,"##잟":5748,"##븡":5749,"##쮜":5750,"##욨":5751,"##퀄":5752,"##슾":5753,"##쑥":5754,"##첼":5755,"##놧":5756,"##촹":5757,"##뭤":5758,"##쫒":5759,"##톱":5760,"##뚤":5761,"##횐":5762,"##돵":5763,"##쿸":5764,"##낑":5765,"##쒜":5766,"##찼":5767,"##❗":5768,"##쭈":5769,"##뮤":5770,"##잽":5771,"##딕":5772,"##왁":5773,"##씞":5774,"##쏙":5775,"##댘":5776,"##찿":5777,"##🎊":5778,"##⚡":5779,"##☔":5780,"##앜":5781,"##찝":5782,"##😛":5783,"##눗":5784,"##뺀":5785,"##🤗":5786,"##겆":5787,"##뢀":5788,"##쏜":5789,"##쉨":5790,"##컼":5791,"##됵":5792,"##옺":5793,"##츼":5794,"##쥤":5795,"##겧":5796,"##겜":5797,"##웰":5798,"##빻":5799,"##🐒":5800,"##믜":5801,"##뉨":5802,"##곘":5803,"##믈":5804,"##끽":5805,"##엾":5806,"##꿨":5807,"##딹":5808,"##쭝":5809,"##솽":5810,"##짬":5811,"##맗":5812,"##곅":5813,"##켐":5814,"##잭":5815,"##웜":5816,"##낚":5817,"##섺":5818,"##읺":5819,"##쫓":5820,"##뫄":5821,"##👻":5822,"##닏":5823,"##됴":5824,"##댑":5825,"##쫏":5826,"##룟":5827,"##쭐":5828,"##❣":5829,"##먀":5830,"##넉":5831,"##룐":5832,"##뚠":5833,"##쯰":5834,"##꿜":5835,"##Z":5836,"##줏":5837,"##펄":5838,"##낟":5839,"##펼":5840,"##븥":5841,"##뽀":5842,"##빗":5843,"##줭":5844,"##뺨":5845,"##돰":5846,"##뇸":5847,"##곗":5848,"##뱁":5849,"##흣":5850,"##깉":5851,"##뭏":5852,"##봘":5853,"##뎠":5854,"##덱":5855,"##뮌":5856,"##쌉":5857,"##욿":5858,"##옮":5859,"##앴":5860,"##🇯":5861,"##좇":5862,"##옘":5863,"##볭":5864,"##🐀":5865,"##🐓":5866,"##🐔":5867,"##❕":5868,"##넓":5869,"##탬":5870,"##빕":5871,"##뼉":5872,"##굉":5873,"##맂":5874,"##츤":5875,"##졍":5876,"##😮":5877,"##슁":5878,"##앟":5879,"##맀":5880,"##츨":5881,"##콥":5882,"##땔":5883,"##🥰":5884,"##닺":5885,"##😅":5886,"##긱":5887,"##쑝":5888,"##☄":5889,"##🌋":5890,"##뭣":5891,"##욥":5892,"##댸":5893,"##쳬":5894,"##쐬":5895,"##핍":5896,"##홥":5897,"##뮈":5898,"##멱":5899,"##냰":5900,"##👎":5901,"##죹":5902,"##윙":5903,"##깤":5904,"##갇":5905,"##띵":5906,"##😤":5907,"##딬":5908,"##읊":5909,"##닶":5910,"##몆":5911,"##쏼":5912,"##꽤":5913,"##웧":5914,"##킷":5915,"##낱":5916,"##쏭":5917,"##쒀":5918,"##쓥":5919,"##랠":5920,"##돟":5921,"##뺑":5922,"##엠":5923,"##삔":5924,"##🗡":5925,"##🔫":5926,"##좐":5927,"##굥":5928,"##룽":5929,"##땨":5930,"##탹":5931,"##콕":5932,"##뿍":5933,"##뺘":5934,"##👊":5935,"##훽":5936,"##캍":5937,"##😜":5938,"##👹":5939,"##🔪":5940,"##짹":5941,"##좟":5942,"##왑":5943,"##얇":5944,"##찟":5945,"##냠":5946,"##얽":5947,"##섥":5948,"##🔵":5949,"##닽":5950,"##썸":5951,"##쨋":5952,"##윽":5953,"##좡":5954,"##삑":5955,"##뿟":5956,"##깠":5957,"##쯍":5958,"##뺐":5959,"##찧":5960,"##쯩":5961,"##쟤":5962,"##냣":5963,"##뵹":5964,"##쯔":5965,"##껭":5966,"##😀":5967,"##펌":5968,"##붐":5969,"##럐":5970,"##냘":5971,"##챱":5972,"##쟉":5973,"##섶":5974,"##쭛":5975,"##🎤":5976,"##튭":5977,"##🐈":5978,"##럾":5979,"##🤣":5980,"##🎴":5981,"##쾨":5982,"##쪾":5983,"##밨":5984,"##솜":5985,"##큿":5986,"##첸":5987,"##굑":5988,"##흩":5989,"##닠":5990,"##몱":5991,"##짧":5992,"##몐":5993,"##췄":5994,"##썌":5995,"##뫈":5996,"##뚸":5997,"##롳":5998,"##툴":5999,"##뎔":6000,"##💩":6001,"##텀":6002,"##쫀":6003,"##봫":6004,"##셤":6005,"##곹":6006,"##맵":6007,"##삯":6008,"##뗌":6009,"##😆":6010,"##찡":6011,"##쨍":6012,"##밉":6013,"##😉":6014,"##😌":6015,"##챠":6016,"##딋":6017,"##햄":6018,"##죳":6019,"##줕":6020,"##햔":6021,"##띤":6022,"##읮":6023,"##윌":6024,"##쬬":6025,"##넙":6026,"##맄":6027,"##둣":6028,"##⃣":6029,"##😙":6030,"##🐤":6031,"##깥":6032,"##뿜":6033,"##섘":6034,"##✔":6035,"##😰":6036,"##팢":6037,"##릐":6038,"##늣":6039,"##쥴":6040,"##뮨":6041,"##콴":6042,"##꽐":6043,"##🎶":6044,"##썪":6045,"##😘":6046,"##멩":6047,"##쎗":6048,"##🦀":6049,"##쭵":6050,"##괼":6051,"##킼":6052,"##👐":6053,"##섕":6054,"##😞":6055,"##챘":6056,"##😁":6057,"##봥":6058,"##앚":6059,"##✨":6060,"##솨":6061,"##랒":6062,"##펐":6063,"##챌":6064,"##꺾":6065,"##랲":6066,"##썰":6067,"##떱":6068,"##퀘":6069,"##켝":6070,"##뎄":6071,"##숵":6072,"##꼇":6073,"##폈":6074,"##맟":6075,"##봍":6076,"##닸":6077,"##쿤":6078,"##핸":6079,"##폇":6080,"##듥":6081,"##🦋":6082,"##곸":6083,"##돚":6084,"##킝":6085,"##∼":6086,"##꽝":6087,"##둟":6088,"##☠":6089,"##듸":6090,"##뵐":6091,"##퍈":6092,"##ㅄ":6093,"##싰":6094,"##쇡":6095,"##싳":6096,"##넠":6097,"##뺙":6098,"##늑":6099,"##🐝":6100,"##룔":6101,"##쉼":6102,"##깼":6103,"##훍":6104,"##😈":6105,"##🤕":6106,"##💀":6107,"##🤑":6108,"##🤢":6109,"##🤮":6110,"##쥣":6111,"##눙":6112,"##컹":6113,"##▶":6114,"##솓":6115,"##쉭":6116,"##짭":6117,"##윘":6118,"##🐿":6119,"##춧":6120,"##깢":6121,"##옶":6122,"##🐴":6123,"##훗":6124,"##헣":6125,"##옸":6126,"##듷":6127,"##겇":6128,"##뭄":6129,"##딮":6130,"##낏":6131,"##녤":6132,"##뻭":6133,"##홉":6134,"##뿡":6135,"##샜":6136,"##옐":6137,"##숲":6138,"##쬭":6139,"##🎈":6140,"##떔":6141,"##훅":6142,"##멉":6143,"##쨈":6144,"##🏿":6145,"##궸":6146,"##ㄺ":6147,"##팁":6148,"##젿":6149,"##싴":6150,"##곪":6151,"##✴":6152,"##넜":6153,"##켤":6154,"##맇":6155,"##픙":6156,"##😊":6157,"##쐑":6158,"##샆":6159,"##캥":6160,"##🍊":6161,"##삲":6162,"##💛":6163,"##땠":6164,"##⛔":6165,"##늧":6166,"##칮":6167,"##캅":6168,"##겈":6169,"##툭":6170,"##🚨":6171,"##좔":6172,"##븨":6173,"##훨":6174,"##톼":6175,"##뼝":6176,"##💰":6177,"##궹":6178,"##괞":6179,"##쨌":6180,"##쾈":6181,"##🥺":6182,"##틋":6183,"##뿅":6184,"##쯕":6185,"##팥":6186,"##씦":6187,"##쉿":6188,"##씽":6189,"##홑":6190,"##렣":6191,"##펏":6192,"##벋":6193,"##💝":6194,"##얭":6195,"##뻬":6196,"##🙏":6197,"##퍄":6198,"##줙":6199,"##듕":6200,"##쒼":6201,"##뀬":6202,"##큽":6203,"##빱":6204,"##얍":6205,"##쟝":6206,"##😗":6207,"##짠":6208,"##껼":6209,"##🐽":6210,"##툰":6211,"##꿧":6212,"##빸":6213,"##뺍":6214,"##끋":6215,"##쫙":6216,"##걑":6217,"##굔":6218,"##쪕":6219,"##샡":6220,"##놉":6221,"##밣":6222,"##챤":6223,"##꿘":6224,"##쳡":6225,"##롴":6226,"##퉤":6227,"##츙":6228,"##쌨":6229,"##궘":6230,"##🚴":6231,"##🤩":6232,"##읅":6233,"##놐":6234,"##갛":6235,"##눴":6236,"##늪":6237,"##엡":6238,"##쳉":6239,"##샬":6240,"##믓":6241,"##쏫":6242,"##겍":6243,"##츱":6244,"##얜":6245,"##쉈":6246,"##왠":6247,"##웬":6248,"##돳":6249,"##싡":6250,"##촘":6251,"##큘":6252,"##앰":6253,"##뭥":6254,"##쌖":6255,"##닞":6256,"##뼌":6257,"##췌":6258,"##똬":6259,"##솤":6260,"##쉘":6261,"##뎆":6262,"##✂":6263,"##듧":6264,"##뢉":6265,"##삤":6266,"##🌷":6267,"##쥰":6268,"##봊":6269,"##홰":6270,"##죱":6271,"##젴":6272,"##잿":6273,"##켷":6274,"##뀜":6275,"##갷":6276,"##뽈":6277,"##뚕":6278,"##풉":6279,"##🐵":6280,"##⭐":6281,"##늗":6282,"##녈":6283,"##뽤":6284,"##쪈":6285,"##멕":6286,"##옿":6287,"##🤭":6288,"##튬":6289,"##됒":6290,"##🐯":6291,"##풋":6292,"##뀝":6293,"##👣":6294,"##엦":6295,"##쓉":6296,"##냑":6297,"##멧":6298,"##쐰":6299,"##캇":6300,"##밈":6301,"##🤯":6302,"##싨":6303,"##샣":6304,"##짴":6305,"##👦":6306,"##🎗":6307,"##틔":6308,"##쓩":6309,"##☹":6310,"##핝":6311,"##맜":6312,"##챡":6313,"##🐅":6314,"##쑨":6315,"##궂":6316,"##굵":6317,"##붸":6318,"##싁":6319,"##좍":6320,"##😨":6321,"##듐":6322,"##믕":6323,"##🙋":6324,"##깬":6325,"##눜":6326,"##렐":6327,"##볌":6328,"##웍":6329,"##퇄":6330,"##돴":6331,"##뭅":6332,"##쨩":6333,"##묜":6334,"##쐭":6335,"##🙆":6336,"##맴":6337,"##돨":6338,"##🚗":6339,"##쇜":6340,"##윾":6341,"##먕":6342,"##푠":6343,"##즨":6344,"##밫":6345,"##읆":6346,"##쎔":6347,"##앎":6348,"##🐎":6349,"##쟹":6350,"##🤤":6351,"##쌋":6352,"##쿼":6353,"##읻":6354,"##짢":6355,"##텁":6356,"##젛":6357,"##턔":6358,"##👟":6359,"##욜":6360,"##놰":6361,"##긐":6362,"##릊":6363,"##듵":6364,"##궝":6365,"##궉":6366,"##쐈":6367,"##켸":6368,"##😥":6369,"##톄":6370,"##몈":6371,"##앏":6372,"##👴":6373,"##팤":6374,"##멌":6375,"##♣":6376,"##뭍":6377,"##왼":6378,"##옄":6379,"##🌶":6380,"##릔":6381,"##듨":6382,"##갲":6383,"##뺃":6384,"##헠":6385,"##🙌":6386,"##뻤":6387,"##롹":6388,"##힣":6389,"##싞":6390,"##뉸":6391,"##벱":6392,"##뒹":6393,"##🤧":6394,"##🤒":6395,"##깧":6396,"##횃":6397,"##읉":6398,"##킄":6399,"##쀼":6400,"##뙈":6401,"##갂":6402,"##뀨":6403,"##놋":6404,"##딷":6405,"##🐭":6406,"##켬":6407,"##맆":6408,"##롄":6409,"##팜":6410,"##쇗":6411,"##☀":6412,"##앍":6413,"##섁":6414,"##샋":6415,"##맍":6416,"##곰":6417,"##줒":6418,"##읏":6419,"##츌":6420,"##눅":6421,"##붛":6422,"##옇":6423,"##튤":6424,"##돱":6425,"##🎇":6426,"##빋":6427,"##셑":6428,"##👄":6429,"##뗐":6430,"##죕":6431,"##밯":6432,"##쁩":6433,"##깰":6434,"##롲":6435,"##홋":6436,"##햏":6437,"##윅":6438,"##뽁":6439,"##듫":6440,"##렿":6441,"##괌":6442,"##봏":6443,"##🎸":6444,"##🥁":6445,"##💊":6446,"##뽐":6447,"##힜":6448,"##폿":6449,"##퓹":6450,"##뱐":6451,"##볐":6452,"##👤":6453,"##👥":6454,"##쓔":6455,"##😲":6456,"##즞":6457,"##숍":6458,"##🐱":6459,"##😵":6460,"##앋":6461,"##렼":6462,"##🏼":6463,"##졈":6464,"##텄":6465,"##봬":6466,"##댙":6467,"##쉣":6468,"##곶":6469,"##겝":6470,"##긇":6471,"##츈":6472,"##싲":6473,"##뭡":6474,"##😖":6475,"##🌹":6476,"##뱍":6477,"##뷴":6478,"##싢":6479,"##뼤":6480,"##👁":6481,"##깈":6482,"##낵":6483,"##얖":6484,"##쟜":6485,"##퀀":6486,"##췃":6487,"##쳦":6488,"##꾤":6489,"##씝":6490,"##짗":6491,"##껰":6492,"##쐐":6493,"##🤔":6494,"##옙":6495,"##벳":6496,"##혝":6497,"##젰":6498,"##핟":6499,"##햤":6500,"##쳌":6501,"##긿":6502,"##욛":6503,"##잩":6504,"##젬":6505,"##콰":6506,"##읒":6507,"##얒":6508,"##긕":6509,"##끕":6510,"##곌":6511,"##휀":6512,"##깞":6513,"##🇪":6514,"##🌕":6515,"##뉩":6516,"##푹":6517,"##쌬":6518,"##셲":6519,"##띔":6520,"##엳":6521,"##똔":6522,"##🙂":6523,"##놌":6524,"##굻":6525,"##콱":6526,"##맑":6527,"##좉":6528,"##뜽":6529,"##갗":6530,"##칀":6531,"##랋":6532,"##뺴":6533,"##툥":6534,"##쉌":6535,"##얗":6536,"##젹":6537,"##텬":6538,"##딤":6539,"##빩":6540,"##샅":6541,"##핌":6542,"##😓":6543,"##🤦":6544,"##읁":6545,"##쪘":6546,"##쫍":6547,"##렆":6548,"##🎵":6549,"##죷":6550,"##왘":6551,"##☢":6552,"##🇨":6553,"##먿":6554,"##섣":6555,"##앃":6556,"##뉠":6557,"##싮":6558,"##궄":6559,"##찎":6560,"##랃":6561,"##꿎":6562,"##뙤":6563,"##쐉":6564,"##쌰":6565,"##얶":6566,"##댤":6567,"##퇸":6568,"##셥":6569,"##땄":6570,"##씼":6571,"##걩":6572,"##읭":6573,"##낍":6574,"##맬":6575,"##렠":6576,"##🎄":6577,"##뎐":6578,"##🥚":6579,"##▪":6580,"##쇅":6581,"##씰":6582,"##롓":6583,"##👞":6584,"##슌":6585,"##깄":6586,"##픕":6587,"##믽":6588,"##🔕":6589,"##😳":6590,"##꾀":6591,"##핓":6592,"##🐮":6593,"##욯":6594,"##뻰":6595,"##벡":6596,"##쿰":6597,"##랳":6598,"##💣":6599,"##궙":6600,"##펩":6601,"##엪":6602,"##뜀":6603,"##랟":6604,"##㊗":6605,"##뙨":6606,"##휼":6607,"##촨":6608,"##얕":6609,"##힉":6610,"##쎜":6611,"##헁":6612,"##퍙":6613,"##궛":6614,"##🙊":6615,"##🙈":6616,"##댭":6617,"##뾰":6618,"##퍌":6619,"##갬":6620,"##솼":6621,"##짔":6622,"##늫":6623,"##쬑":6624,"##🐧":6625,"##뎟":6626,"##껜":6627,"##뒝":6628,"##🌈":6629,"##읠":6630,"##톻":6631,"##퓡":6632,"##쭀":6633,"##턍":6634,"##쎠":6635,"##🐉":6636,"##삣":6637,"##뗄":6638,"##굣":6639,"##촥":6640,"##캭":6641,"##싪":6642,"##뇜":6643,"##🌝":6644,"##솎":6645,"##솅":6646,"##벧":6647,"##낡":6648,"##뻡":6649,"##욋":6650,"##팰":6651,"##닜":6652,"##팹":6653,"##훻":6654,"##젘":6655,"##띌":6656,"##쭙":6657,"##젆":6658,"##뻿":6659,"##쯪":6660,"##뢍":6661,"##묭":6662,"##뤂":6663,"##🥳":6664,"##힝":6665,"##욷":6666,"##챽":6667,"##왤":6668,"##🔸":6669,"##쪅":6670,"##좈":6671,"##롐":6672,"##둰":6673,"##솄":6674,"##잴":6675,"##귁":6676,"##햠":6677,"##덫":6678,"##텼":6679,"##숄":6680,"##쨥":6681,"##🖤":6682,"##죸":6683,"##콬":6684,"##켱":6685,"##줠":6686,"##렜":6687,"##룁":6688,"##쇤":6689,"##🙉":6690,"##얙":6691,"##🐩":6692,"##✳":6693,"##믁":6694,"##롷":6695,"##엏":6696,"##🎯":6697,"##댠":6698,"##챗":6699,"##젙":6700,"##넿":6701,"##🕷":6702,"##옼":6703,"##🍻":6704,"##쭘":6705,"##뷩":6706,"##튈":6707,"##🦮":6708,"##닟":6709,"##붠":6710,"##셌":6711,"##딥":6712,"##핤":6713,"##햊":6714,"##섻":6715,"##뭨":6716,"##윕":6717,"##켙":6718,"##뽜":6719,"##뫙":6720,"##🚔":6721,"##셯":6722,"##넎":6723,"##쒞":6724,"##췽":6725,"##븜":6726,"##렄":6727,"##욍":6728,"##뮷":6729,"##듲":6730,"##괂":6731,"##겂":6732,"##♨":6733,"##뛔":6734,"##쌘":6735,"##탰":6736,"##잪":6737,"##냌":6738,"##뼜":6739,"##긒":6740,"##볻":6741,"##🧡":6742,"##솈":6743,"##삷":6744,"##떽":6745,"##👺":6746,"##빆":6747,"##끘":6748,"##좸":6749,"##🐥":6750,"##윳":6751,"##귓":6752,"##챔":6753,"##쯥":6754,"##꾾":6755,"##뜷":6756,"##볓":6757,"##뵙":6758,"##쳧":6759,"##셴":6760,"##쉡":6761,"##😋":6762,"##렙":6763,"##줗":6764,"##휩":6765,"##룜":6766,"##💤":6767,"##햡":6768,"##쁀":6769,"##놘":6770,"##뽝":6771,"##봔":6772,"##짇":6773,"##힛":6774,"##넽":6775,"##낔":6776,"##깸":6777,"##쟀":6778,"##쏀":6779,"##갮":6780,"##💦":6781,"##챃":6782,"##읕":6783,"##겢":6784,"##옜":6785,"##튿":6786,"##🎼":6787,"##쥼":6788,"##톳":6789,"##웩":6790,"##샂":6791,"##홱":6792,"##🐙":6793,"##🐺":6794,"##🐫":6795,"##댇":6796,"##퀼":6797,"##죻":6798,"##퉷":6799,"##굘":6800,"##😇":6801,"##듼":6802,"##😷":6803,"##뉼":6804,"##쵸":6805,"##🍈":6806,"##🍉":6807,"##⬛":6808,"##뢈":6809,"##냊":6810,"##뮹":6811,"##켭":6812,"##롣":6813,"##맸":6814,"##똒":6815,"##춍":6816,"##뱓":6817,"##🕯":6818,"##좠":6819,"##🐁":6820,"##뵜":6821,"##맼":6822,"##🏾":6823,"##쫘":6824,"##껬":6825,"##뤗":6826,"##캣":6827,"##잕":6828,"##꿑":6829,"##앝":6830,"##묙":6831,"##숼":6832,"##😏":6833,"##뚣":6834,"##켁":6835,"##똭":6836,"##🔹":6837,"##붏":6838,"##싕":6839,"##됍":6840,"##릏":6841,"##숸":6842,"##퓌":6843,"##퉸":6844,"##뱡":6845,"##겊":6846,"##🐄":6847,"##뗍":6848,"##꺅":6849,"##펵":6850,"##엢":6851,"##훙":6852,"##🦜":6853,"##뷘":6854,"##걈":6855,"##쨉":6856,"##럲":6857,"##됙":6858,"##믐":6859,"##훕":6860,"##윱":6861,"##몄":6862,"##⛏":6863,"##씅":6864,"##쎀":6865,"##휜":6866,"##겓":6867,"##챰":6868,"##녠":6869,"##🥶":6870,"##👼":6871,"##쓤":6872,"##쭁":6873,"##앸":6874,"##븰":6875,"##뱆":6876,"##눰":6877,"##빍":6878,"##땈":6879,"##웓":6880,"##듁":6881,"##얺":6882,"##삵":6883,"##큭":6884,"##셓":6885,"##🏃":6886,"##🤸":6887,"##🐨":6888,"##줴":6889,"##🐣":6890,"##됼":6891,"##읐":6892,"##쎕":6893,"##뽂":6894,"##젯":6895,"##딀":6896,"##쯘":6897,"##쒹":6898,"##벴":6899,"##짊":6900,"##삳":6901,"##왰":6902,"##🦇":6903,"##읔":6904,"##샑":6905,"##쉥":6906,"##샇":6907,"##떰":6908,"##뜾":6909,"##엗":6910,"##닾":6911,"##졑":6912,"##띰":6913,"##캈":6914,"##뭬":6915,"##촙":6916,"##갹":6917,"##쒴":6918,"##찷":6919,"##팎":6920,"##눤":6921,"##✌":6922,"##😐":6923,"##🛑":6924,"##뺸":6925,"##얐":6926,"##짙":6927,"##🍎":6928,"##🍅":6929,"##뷱":6930,"##팻":6931,"##짒":6932,"##🌞":6933,"##줟":6934,"##삮":6935,"##붑":6936,"##텋":6937,"##쥘":6938,"##벰":6939,"##윰":6940,"##됗":6941,"##🦍":6942,"##삻":6943,"##🎆":6944,"##👑":6945,"##믠":6946,"##킅":6947,"##엍":6948,"##😩":6949,"##쳫":6950,"##땩":6951,"##몯":6952,"##깆":6953,"##좝":6954,"##멓":6955,"##쎙":6956,"##쫗":6957,"##뫃":6958,"##♠":6959,"##💲":6960,"##💸":6961,"##땁":6962,"##🤷":6963,"##🔖":6964,"##◀":6965,"##쟂":6966,"##짅":6967,"##묠":6968,"##🐾":6969,"##밞":6970,"##먜":6971,"##줳":6972,"##즥":6973,"##럱":6974,"##왚":6975,"##긌":6976,"##넋":6977,"##🤨":6978,"##뺠":6979,"##🍞":6980,"##곂":6981,"##햅":6982,"##텟":6983,"##쎆":6984,"##츳":6985,"##➡":6986,"##쏱":6987,"##슼":6988,"##👩":6989,"##칬":6990,"##햩":6991,"##잀":6992,"##늰":6993,"##끅":6994,"##👧":6995,"##🐇":6996,"##렂":6997,"##햑":6998,"##🇼":6999,"##🇹":7000,"##햬":7001,"##🌚":7002,"##😪":7003,"##웽":7004,"##럤":7005,"##쳇":7006,"##햘":7007,"##췡":7008,"##싑":7009,"##땝":7010,"##😶":7011,"##🤛":7012,"##🚫":7013,"##🔨":7014,"##🍄":7015,"##📍":7016,"##⭕":7017,"##💋":7018,"##🐰":7019,"##읖":7020,"##깦":7021,"##😴":7022,"##❄":7023,"##팃":7024,"##쑹":7025,"##🧨":7026,"##쵼":7027,"##퇫":7028,"##🥇":7029,"##챨":7030,"##푤":7031,"##뉜":7032,"##💘":7033,"##쇆":7034,"##샐":7035,"##🤺":7036,"##🐑":7037,"##븝":7038,"##쪌":7039,"##똫":7040,"##윀":7041,"##풰":7042,"##켘":7043,"##뜌":7044,"##뒨":7045,"##뮐":7046,"##녛":7047,"##쌱":7048,"##먺":7049,"##훓":7050,"##🌛":7051,"##곃":7052,"##풒":7053,"##🎋":7054,"##떧":7055,"##옝":7056,"##떈":7057,"##뀠":7058,"##💫":7059,"##흭":7060,"##꾿":7061,"##😒":7062,"##앂":7063,"##찓":7064,"##곺":7065,"##짛":7066,"##잍":7067,"##♦":7068,"##쎴":7069,"##🔔":7070,"##🌜":7071,"##욪":7072,"##🤪":7073,"##읋":7074,"##쨘":7075,"##잂":7076,"##🐛":7077,"##쫩":7078,"##팛":7079,"##쑴":7080,"##싷":7081,"##겎":7082,"##놁":7083,"##🌿":7084,"##줔":7085,"##🍝":7086,"##멨":7087,"##둉":7088,"##쾡":7089,"##춴":7090,"##씺":7091,"##슆":7092,"##탸":7093,"##밐":7094,"##🦁":7095,"##뤡":7096,"##⬇":7097,"##롁":7098,"##🚢":7099,"##🐂":7100,"##🥵":7101,"##🤥":7102,"##쵀":7103,"##댖":7104,"##븀":7105,"##췐":7106,"##🎺":7107,"##잗":7108,"##젇":7109,"##읫":7110,"##붂":7111,"##🐍":7112,"##먈":7113,"##볔":7114,"##죴":7115,"##뇠":7116,"##핻":7117,"##🐗":7118,"##섵":7119,"##퇬":7120,"##섲":7121,"##쎌":7122,"##쒔":7123,"##틑":7124,"##챴":7125,"##🎃":7126,"##🍀":7127,"##늩":7128,"##🍓":7129,"##갋":7130,"##쾐":7131,"##📣":7132,"##솝":7133,"##퉜":7134,"##👅":7135,"##벝":7136,"##뽚":7137,"##쬽":7138,"##웈":7139,"##쉉":7140,"##텰":7141,"##👽":7142,"##🙄":7143,"##맠":7144,"##곙":7145,"##붘":7146,"##밢":7147,"##슺":7148,"##틉":7149,"##퍠":7150,"##쟛":7151,"##즣":7152,"##옻":7153,"##돜":7154,"##쟨":7155,"##휸":7156,"##홓":7157,"##풜":7158,"##™":7159,"##뻇":7160,"##🔑":7161,"##볘":7162,"##쳑":7163,"##졓":7164,"##앛":7165,"##컄":7166,"##몪":7167,"##켕":7168,"##릍":7169,"##졐":7170,"##🍾":7171,"##갆":7172,"##🐏":7173,"##🤐":7174,"##🏮":7175,"##햿":7176,"##뼁":7177,"##🌙":7178,"##💡":7179,"##↘":7180,"##덨":7181,"##횅":7182,"##럇":7183,"##뎡":7184,"##섮":7185,"##😔":7186,"##옯":7187,"##헜":7188,"##슿":7189,"##묏":7190,"##숖":7191,"##햰":7192,"##🎬":7193,"##잢":7194,"##🇬":7195,"##🇮":7196,"##쳥":7197,"##띡":7198,"##꼉":7199,"##읂":7200,"##쑬":7201,"##짲":7202,"##냤":7203,"##갃":7204,"##💌":7205,"##됻":7206,"##륻":7207,"##⬆":7208,"##뻠":7209,"##샾":7210,"##🙅":7211,"##쉓":7212,"##뼘":7213,"##땸":7214,"##엯":7215,"##봡":7216,"##쫭":7217,"##쥿":7218,"##뿝":7219,"##🤡":7220,"##📢":7221,"##빟":7222,"##낗":7223,"##읾":7224,"##뱨":7225,"##🤫":7226,"##뭌":7227,"##뭠":7228,"##🍺":7229,"##녾":7230,"##슛":7231,"##🤠":7232,"##쩠":7233,"##곻":7234,"##휭":7235,"##슭":7236,"##😻":7237,"##🧟":7238,"##쫔":7239,"##빧":7240,"##괁":7241,"##갉":7242,"##줮":7243,"##꼅":7244,"##긷":7245,"##쵤":7246,"##깩":7247,"##💃":7248,"##🌻":7249,"##🦠":7250,"##✈":7251,"##쭌":7252,"##뒸":7253,"##찯":7254,"##홬":7255,"##곯":7256,"##핱":7257,"##쎵":7258,"##🧢":7259,"##촣":7260,"##븽":7261,"##렫":7262,"##꿱":7263,"##멵":7264,"##슉":7265,"##덪":7266,"##붖":7267,"##🦅":7268,"##밠":7269,"##꺌":7270,"##뷁":7271,"##젋":7272,"##눟":7273,"##럈":7274,"##🤟":7275,"##🤘":7276,"##왛":7277,"##즛":7278,"##뢔":7279,"##궃":7280,"##돞":7281,"##🐟":7282,"##쟙":7283,"##✖":7284,"##놯":7285,"##🎌":7286,"##뇀":7287,"##잛":7288,"##냼":7289,"##📛":7290,"##짼":7291,"##👯":7292,"##먁":7293,"##쯉":7294,"##캑":7295,"##😕":7296,"##뫠":7297,"##🥴":7298,"##쥡":7299,"##춯":7300,"##죧":7301,"##붹":7302,"##딫":7303,"##긜":7304,"##됑":7305,"##귱":7306,"##낃":7307,"##싵":7308,"##햛":7309,"##👫":7310,"##듩":7311,"##졀":7312,"##웆":7313,"##🤝":7314,"##쟐":7315,"##🤜":7316,"##웛":7317,"##🌑":7318,"##앀":7319,"##깂":7320,"##왐":7321,"##뗠":7322,"##넚":7323,"##퓸":7324,"##🍂":7325,"##븟":7326,"##쒯":7327,"##겯":7328,"##쨕":7329,"##햣":7330,"##쯨":7331,"##잋":7332,"##뺵":7333,"##랕":7334,"##🦴":7335,"##뇐":7336,"##뗳":7337,"##웝":7338,"##녅":7339,"##🚩":7340,"##꿩":7341,"##첮":7342,"##뼛":7343,"##댯":7344,"##🥊":7345,"##폠":7346,"##뗜":7347,"##옫":7348,"##췁":7349,"##꽅":7350,"##햭":7351,"##푀":7352,"##🍁":7353,"##닻":7354,"##왱":7355,"##릌":7356,"##푝":7357,"##🍼":7358,"##옂":7359,"##➖":7360,"##턀":7361,"##벸":7362,"##늟":7363,"##뽱":7364,"##👋":7365,"##🖐":7366,"##콸":7367,"##젅":7368,"##갴":7369,"##흫":7370,"##쇙":7371,"##🦶":7372,"##🦆":7373,"##튠":7374,"##듡":7375,"##🍃":7376,"##옽":7377,"##👀":7378,"##💵":7379,"##닊":7380,"##릂":7381,"##좽":7382,"##쥽":7383,"##쎘":7384,"##챀":7385,"##몼":7386,"##괏":7387,"##씉":7388,"##웑":7389,"##옪":7390,"##첝":7391,"##폑":7392,"##💨":7393,"##홤":7394,"##걉":7395,"##쉙":7396,"##궍":7397,"##닪":7398,"##👇":7399,"##뜹":7400,"##캘":7401,"##껸":7402,"##뀡":7403,"##🦺":7404,"##괬":7405,"##퉥":7406,"##끛":7407,"##탯":7408,"##📌":7409,"##💄":7410,"##🙃":7411,"##땽":7412,"##빯":7413,"##휑":7414,"##꿴":7415,"##퓽":7416,"##먆":7417,"##뵨":7418,"##툇":7419,"##굮":7420,"##뢐":7421,"##쩄":7422,"##옅":7423,"##🍏":7424,"##꺙":7425,"##👨":7426,"##혠":7427,"##🏈":7428,"##땋":7429,"##ㄻ":7430,"##쏨":7431,"##뢱":7432,"##쐨":7433,"##쒰":7434,"##뎜":7435,"##탼":7436,"##뮴":7437,"##쇽":7438,"##벆":7439,"##⏪":7440,"##벹":7441,"##믾":7442,"##넫":7443,"##뜁":7444,"##꼮":7445,"##띈":7446,"##퐌":7447,"##🦊":7448,"##묹":7449,"##졉":7450,"##썁":7451,"##낂":7452,"##휙":7453,"##🧐":7454,"##깋":7455,"##갵":7456,"##🔷":7457,"##씃":7458,"##🌏":7459,"##✅":7460,"##혤":7461,"##흴":7462,"##앆":7463,"##뙇":7464,"##롶":7465,"##☑":7466,"##좦":7467,"##맻":7468,"##🍆":7469,"##🔇":7470,"##🇱":7471,"##졵":7472,"##븹":7473,"##꾁":7474,"##🎁":7475,"##🔧":7476,"##횬":7477,"##⛄":7478,"##닣":7479,"##쨓":7480,"##🍒":7481,"##🦝":7482,"##껨":7483,"##쐴":7484,"##짏":7485,"##🤴":7486,"##싈":7487,"##덛":7488,"##쳘":7489,"##숰":7490,"##뒛":7491,"##캪":7492,"##쪔":7493,"##롕":7494,"##짯":7495,"##롼":7496,"##🌾":7497,"##컽":7498,"##뭊":7499,"##봗":7500,"##랂":7501,"##칑":7502,"##찣":7503,"##듪":7504,"##🍬":7505,"##줩":7506,"##팓":7507,"##욀":7508,"##쌥":7509,"##듴":7510,"##씯":7511,"##쯫":7512,"##↗":7513,"##굷":7514,"##뢴":7515,"##숮":7516,"##귿":7517,"##큉":7518,"##🩸":7519,"##췅":7520,"##🗿":7521,"##⚠":7522,"##믇":7523,"##헿":7524,"##🐳":7525,"##젏":7526,"##봌":7527,"##쎡":7528,"##🍔":7529,"##🎧":7530,"##닯":7531,"##🦉":7532,"##긎":7533,"##꽹":7534,"##뺕":7535,"##🍇":7536,"##굯":7537,"##릫":7538,"##젲":7539,"##닚":7540,"##윸":7541,"##뱽":7542,"##💁":7543,"##🥀":7544,"##떢":7545,"##궨":7546,"##옃":7547,"##↔":7548,"##맔":7549,"##얃":7550,"##햋":7551,"##볏":7552,"##뗑":7553,"##꿂":7554,"##눞":7555,"##👪":7556,"##👬":7557,"##👭":7558,"##💏":7559,"##💑":7560,"##퉛":7561,"##켑":7562,"##칰":7563,"##딍":7564,"##좊":7565,"##읿":7566,"##🛎":7567,"##읇":7568,"##🍰":7569,"##🇭":7570,"##밪":7571,"##괙":7572,"##뮥":7573,"##짪":7574,"##뛧":7575,"##횝":7576,"##앢":7577,"##ㄳ":7578,"##씳":7579,"##⬅":7580,"##솰":7581,"##끚":7582,"##폅":7583,"##맢":7584,"##뵁":7585,"##뺜":7586,"##둗":7587,"##💒":7588,"##냦":7589,"##땬":7590,"##엷":7591,"##꽊":7592,"##숳":7593,"##꼻":7594,"##싺":7595,"##쇳":7596,"##푯":7597,"##쾍":7598,"##잧":7599,"##썡":7600,"##🐻":7601,"##짞":7602,"##칞":7603,"##🏴":7604,"##댗":7605,"##쩟":7606,"##줱":7607,"##숏":7608,"##홯":7609,"##🤓":7610,"##뜡":7611,"##큨":7612,"##벓":7613,"##👗":7614,"##🌀":7615,"##벍":7616,"##몋":7617,"##좄":7618,"##뚯":7619,"##걌":7620,"##🤚":7621,"##뵀":7622,"##빝":7623,"##갏":7624,"##븁":7625,"##햝":7626,"##촵":7627,"##좢":7628,"##ㅀ":7629,"##🎀":7630,"##죰":7631,"##낛":7632,"##맊":7633,"##졘":7634,"##껶":7635,"##🌱":7636,"##🌎":7637,"##얫":7638,"##흨":7639,"##팦":7640,"##젗":7641,"##🍭":7642,"##늡":7643,"##씪":7644,"##쌧":7645,"##넢":7646,"##볾":7647,"##👶":7648,"##푱":7649,"##쏩":7650,"##🧠":7651,"##덋":7652,"##👂":7653,"##똣":7654,"##뺒":7655,"##쩢":7656,"##븬":7657,"##멐":7658,"##🌄":7659,"##씾":7660,"##듳":7661,"##춋":7662,"##띱":7663,"##핲":7664,"##웄":7665,"##낞":7666,"##폥":7667,"##뭑":7668,"##쮹":7669,"##🎂":7670,"##➰":7671,"##먽":7672,"##튱":7673,"##륀":7674,"##🎙":7675,"##쎤":7676,"##픗":7677,"##욮":7678,"##핶":7679,"##퇼":7680,"##궅":7681,"##껔":7682,"##봑":7683,"##녂":7684,"##괵":7685,"##😽":7686,"##꾕":7687,"##🗣":7688,"##휨":7689,"##😯":7690,"##픵":7691,"##갣":7692,"##읨":7693,"##섷":7694,"##뭰":7695,"##🎷":7696,"##눨":7697,"##퀙":7698,"##밮":7699,"##븩":7700,"##뭫":7701,"##픠":7702,"##👵":7703,"##줃":7704,"##쩦":7705,"##뒬":7706,"##쩧":7707,"##쎃":7708,"##🍚":7709,"##꿃":7710,"##⛳":7711,"##뱝":7712,"##몡":7713,"##녿":7714,"##췼":7715,"##쨜":7716,"##얂":7717,"##얨":7718,"##뮝":7719,"##텻":7720,"##샞":7721,"##륍":7722,"##쐽":7723,"##껫":7724,"##햟":7725,"##🍳":7726,"##넒":7727,"##넖":7728,"##뗗":7729,"##펍":7730,"##흌":7731,"##붃":7732,"##쳠":7733,"##🔲":7734,"##떫":7735,"##🤰":7736,"##냡":7737,"##🔉":7738,"##👆":7739,"##줸":7740,"##챕":7741,"##쌜":7742,"##싦":7743,"##🍖":7744,"##읙":7745,"##꿏":7746,"##🕺":7747,"##☘":7748,"##늼":7749,"##귐":7750,"##☣":7751,"##틅":7752,"##튐":7753,"##🚅":7754,"##풔":7755,"##뚀":7756,"##🤞":7757,"##❔":7758,"##뷍":7759,"##낲":7760,"##붚":7761,"##걲":7762,"##🔅":7763,"##🔆":7764,"##💔":7765,"##🐸":7766,"##뚷":7767,"##🏅":7768,"##몴":7769,"##칡":7770,"##븉":7771,"##🌵":7772,"##🥥":7773,"##🍌":7774,"##앲":7775,"##뇰":7776,"##퐝":7777,"##핢":7778,"##쪗":7779,"##👾":7780,"##샕":7781,"##묷":7782,"##폽":7783,"##🐜":7784,"##🍴":7785,"##샼":7786,"##걵":7787,"##🌊":7788,"##깹":7789,"##🌍":7790,"##슄":7791,"##왴":7792,"##⚔":7793,"##⚰":7794,"##똠":7795,"##둇":7796,"##욹":7797,"##🎹":7798,"##휄":7799,"##딝":7800,"##훳":7801,"##👙":7802,"##😟":7803,"##됮":7804,"##쌂":7805,"##돝":7806,"##랓":7807,"##🗽":7808,"##뮛":7809,"##옭":7810,"##캌":7811,"##뱜":7812,"##🐹":7813,"##튓":7814,"##짋":7815,"##쏵":7816,"##틐":7817,"##💎":7818,"##샸":7819,"##퉵":7820,"##☎":7821,"##덷":7822,"##훑":7823,"##🇦":7824,"##힁":7825,"##횄":7826,"##빬":7827,"##읰":7828,"##쫃":7829,"##쎾":7830,"##⚖":7831,"##뮙":7832,"##촴":7833,"##묫":7834,"##왹":7835,"##춣":7836,"##뷀":7837,"##놬":7838,"##떯":7839,"##훵":7840,"##🔺":7841,"##짦":7842,"##컈":7843,"##쁑":7844,"##볜":7845,"##섿":7846,"##밓":7847,"##긘":7848,"##꽄":7849,"##🌰":7850,"##섡":7851,"##🌩":7852,"##🌧":7853,"##👘":7854,"##🚑":7855,"##솩":7856,"##쭥":7857,"##껙":7858,"##벛":7859,"##🔮":7860,"##댛":7861,"##📺":7862,"##넗":7863,"##뺭":7864,"##붱":7865,"##쨎":7866,"##뉍":7867,"##🥕":7868,"##섄":7869,"##껵":7870,"##얠":7871,"##앐":7872,"##쮠":7873,"##눍":7874,"##낧":7875,"##👮":7876,"##뿕":7877,"##쫐":7878,"##쌴":7879,"##낝":7880,"##먖":7881,"##졻":7882,"##🎭":7883,"##뻉":7884,"##🐃":7885,"##퇀":7886,"##쟞":7887,"##몣":7888,"##젉":7889,"##즂":7890,"##쓒":7891,"##먾":7892,"##욺":7893,"##흽":7894,"##🍋":7895,"##탙":7896,"##퍀":7897,"##흄":7898,"##쏳":7899,"##엃":7900,"##륄":7901,"##옰":7902,"##맽":7903,"##👲":7904,"##죨":7905,"##틁":7906,"##뻈":7907,"##졲":7908,"##첯":7909,"##묽":7910,"##춈":7911,"##줯":7912,"##웸":7913,"##튑":7914,"##뱸":7915,"##뻴":7916,"##쮝":7917,"##죅":7918,"##줓":7919,"##🌽":7920,"##똗":7921,"##걘":7922,"##📯":7923,"##얾":7924,"##졳":7925,"##얊":7926,"##됸":7927,"##🥒":7928,"##봟":7929,"##쀍":7930,"##땰":7931,"##쯜":7932,"##윷":7933,"##뻩":7934,"##🐼":7935,"##잚":7936,"##휏":7937,"##⚫":7938,"##💧":7939,"##젎":7940,"##똟":7941,"##↙":7942,"##츅":7943,"##🏓":7944,"##넑":7945,"##뵵":7946,"##웂":7947,"##🏇":7948,"##붋":7949,"##꾐":7950,"##🥖":7951,"##쫴":7952,"##®":7953,"##🔻":7954,"##좂":7955,"##🦼":7956,"##퀭":7957,"##먗":7958,"##🕖":7959,"##풓":7960,"##쀄":7961,"##쪚":7962,"##쬠":7963,"##홨":7964,"##으로":7965,"##하는":7966,"##들이":7967,"##하고":7968,"##니다":7969,"ㅋㅋ":7970,"##에서":7971,"##는데":7972,"국민":7973,"##다고":7974,"아니":7975,"##이다":7976,"##들은":7977,"사람":7978,"##라고":7979,"문재":7980,"나라":7981,"##는거":7982,"우리":7983,"일본":7984,"##으면":7985,"##하면":7986,"##해서":7987,"이런":7988,"생각":7989,"중국":7990,"문재인":7991,"진짜":7992,"##이라":7993,"##통령":7994,"##다는":7995,"하는":7996,"한국":7997,"##하지":7998,"##까지":7999,"##나라":8000,"지금":8001,"##니까":8002,"##세요":8003,"##렇게":8004,"##리고":8005,"##이나":8006,"##하게":8007,"##한다":8008,"조국":8009,"##대로":8010,"##ㅋㅋ":8011,"대통령":8012,"##하다":8013,"대한":8014,"##지만":8015,"##인데":8016,"민주":8017,"북한":8018,"그냥":8019,"##에게":8020,"##해야":8021,"ㅋㅋㅋ":8022,"##해라":8023,"정치":8024,"##네요":8025,"##민국":8026,"##한테":8027,"정부":8028,"##레기":8029,"##구나":8030,"##면서":8031,"있는":8032,"인간":8033,"##이고":8034,"대한민국":8035,"##같은":8036,"이제":8037,"문제":8038,"하고":8039,"##00":8040,"그래":8041,"##부터":8042,"##보다":8043,"정신":8044,"##라도":8045,"##습니다":8046,"##는게":8047,"아닌":8048,"모르":8049,"정말":8050,"##들어":8051,"##들아":8052,"그런":8053,"##사람":8054,"##주의":8055,"검찰":8056,"미국":8057,"무슨":8058,"##려고":8059,"그러":8060,"민주당":8061,"##야지":8062,"##합니다":8063,"댓글":8064,"경제":8065,"같은":8066,"##이지":8067,"정권":8068,"너무":8069,"##적으로":8070,"##이냐":8071,"##소리":8072,"지지":8073,"##입니다":8074,"##으니":8075,"##OO":8076,"##겠다":8077,"##인가":8078,"기사":8079,"하나":8080,"##어서":8081,"문재앙":8082,"저런":8083,"##처럼":8084,"자기":8085,"##리는":8086,"세금":8087,"##한당":8088,"##들의":8089,"우리나라":8090,"##것도":8091,"##이가":8092,"아무":8093,"하지":8094,"##하네":8095,"국가":8096,"##적인":8097,"이게":8098,"##들을":8099,"##는지":8100,"좌파":8101,"##자가":8102,"자한당":8103,"##갱이":8104,"얼마":8105,"없는":8106,"##지고":8107,"그리고":8108,"쓰레기":8109,"##이네":8110,"##겠지":8111,"##들도":8112,"##이라고":8113,"##라는":8114,"##아서":8115,"어떻":8116,"그렇게":8117,"어디":8118,"##문에":8119,"있다":8120,"##말고":8121,"들어":8122,"제발":8123,"아직":8124,"안되":8125,"당신":8126,"잘못":8127,"OOO":8128,"한다":8129,"##가리":8130,"없다":8131,"##잖아":8132,"자유":8133,"##천지":8134,"누가":8135,"어떻게":8136,"다른":8137,"##하냐":8138,"##인이":8139,"##지도":8140,"아니라":8141,"##정부":8142,"##이야":8143,"##정권":8144,"조선":8145,"나오":8146,"빨갱이":8147,"##인지":8148,"##다가":8149,"##해도":8150,"이렇게":8151,"##놓고":8152,"언론":8153,"##근혜":8154,"국회":8155,"그럼":8156,"##로나":8157,"##하나":8158,"많이":8159,"사회":8160,"##의원":8161,"##없는":8162,"##시다":8163,"##어야":8164,"##한거":8165,"##하는거":8166,"그만":8167,"신천지":8168,"##가는":8169,"##자들":8170,"##더니":8171,"##스크":8172,"##시키":8173,"##있는":8174,"이번":8175,"이상":8176,"소리":8177,"얼마나":8178,"친일":8179,"ㅉㅉ":8180,"##거리":8181,"##에는":8182,"##돼지":8183,"코로나":8184,"##이는":8185,"##어요":8186,"국민들":8187,"공산":8188,"##기는":8189,"##보고":8190,"##국민":8191,"거짓":8192,"사람이":8193,"##어도":8194,"##지는":8195,"살아":8196,"보수":8197,"보고":8198,"박근혜":8199,"수준":8200,"수사":8201,"##는다":8202,"##하는데":8203,"##을까":8204,"마스크":8205,"##가서":8206,"아니고":8207,"제대로":8208,"정의":8209,"##된다":8210,"##봐라":8211,"##정은":8212,"선동":8213,"나라가":8214,"해야":8215,"##와대":8216,"##었다":8217,"##자는":8218,"세상":8219,"사실":8220,"피해":8221,"##에도":8222,"필요":8223,"ㅎㅎ":8224,"여기":8225,"이해":8226,"내가":8227,"##주고":8228,"모든":8229,"이미":8230,"근데":8231,"##는건":8232,"만들":8233,"##정도":8234,"돌아":8235,"##이면":8236,"##구만":8237,"선거":8238,"니가":8239,"10":8240,"##겠네":8241,"아이":8242,"##나요":8243,"니들":8244,"다시":8245,"말고":8246,"청와대":8247,"모두":8248,"계속":8249,"하면":8250,"만들어":8251,"탄핵":8252,"아직도":8253,"조사":8254,"20":8255,"누구":8256,"미친":8257,"##했다":8258,"이건":8259,"아닌가":8260,"아베":8261,"좋아":8262,"##마라":8263,"##새끼":8264,"조작":8265,"##리가":8266,"개돼지":8267,"##하기":8268,"##가지":8269,"서울":8270,"대깨":8271,"좌빨":8272,"##다니":8273,"좋은":8274,"여자":8275,"##이라도":8276,"##이랑":8277,"보면":8278,"아주":8279,"##러운":8280,"##없이":8281,"해라":8282,"사람들":8283,"이유":8284,"말이":8285,"##아야":8286,"##하라":8287,"한심":8288,"언제":8289,"대깨문":8290,"그래서":8291,"##시켜":8292,"##하자":8293,"역시":8294,"한번":8295,"##하니":8296,"알고":8297,"많은":8298,"##같이":8299,"##아니":8300,"그게":8301,"##하시":8302,"대구":8303,"##하면서":8304,"##먹고":8305,"책임":8306,"당연":8307,"##거다":8308,"무능":8309,"##어나":8310,"##보면":8311,"새끼":8312,"##기를":8313,"자식":8314,"국민이":8315,"범죄":8316,"재앙":8317,"부모":8318,"##기에":8319,"##없다":8320,"##텐데":8321,"바로":8322,"##던데":8323,"##한다고":8324,"##것이":8325,"경찰":8326,"100":8327,"그렇":8328,"##어라":8329,"##만원":8330,"뭐가":8331,"총선":8332,"##인들":8333,"##하는게":8334,"이러":8335,"##이니":8336,"니들이":8337,"김정은":8338,"##시민":8339,"결국":8340,"가짜":8341,"##더라":8342,"절대":8343,"기업":8344,"국회의원":8345,"국민들이":8346,"가족":8347,"토착":8348,"##주는":8349,"황교":8350,"##치고":8351,"##당이":8352,"국민을":8353,"없어":8354,"위해":8355,"##수가":8356,"완전":8357,"빨리":8358,"##주세요":8359,"때문에":8360,"##성이":8361,"이거":8362,"##지않":8363,"세계":8364,"반대":8365,"##기업":8366,"##와서":8367,"##중에":8368,"자신":8369,"나라를":8370,"아니다":8371,"전라도":8372,"받아":8373,"어떤":8374,"##는거지":8375,"##겠냐":8376,"상황":8377,"적폐":8378,"##것들":8379,"요즘":8380,"있는데":8381,"##이란":8382,"##기가":8383,"정도":8384,"독재":8385,"같이":8386,"인정":8387,"기자":8388,"##거지":8389,"##사가":8390,"세월":8391,"여론":8392,"##대체":8393,"##고있":8394,"사기":8395,"이용":8396,"##지말고":8397,"너희":8398,"##되는":8399,"떨어":8400,"##일보":8401,"##려라":8402,"##동안":8403,"장관":8404,"도대체":8405,"권력":8406,"더불":8407,"##대통령":8408,"##전에":8409,"##무원":8410,"##거나":8411,"##이라는":8412,"보내":8413,"##시고":8414,"없고":8415,"##치는":8416,"거짓말":8417,"##ㅋㅋㅋ":8418,"##체가":8419,"지들":8420,"##사는":8421,"합니다":8422,"##놈들":8423,"다음":8424,"달창":8425,"##스럽":8426,"전부":8427,"##이상":8428,"있었":8429,"구속":8430,"##때문에":8431,"##시간":8432,"##왜구":8433,"사람들이":8434,"시작":8435,"먼저":8436,"아님":8437,"##아라":8438,"세월호":8439,"##지가":8440,"마음":8441,"##건데":8442,"##다면":8443,"##조건":8444,"아니면":8445,"그래도":8446,"입국":8447,"보여":8448,"##운동":8449,"어느":8450,"남자":8451,"##뉴스":8452,"국민의":8453,"현실":8454,"##하여":8455,"안보":8456,"##자리":8457,"##경원":8458,"시키":8459,"이젠":8460,"##장이":8461,"처벌":8462,"##장관":8463,"나경원":8464,"걱정":8465,"정상":8466,"##라이":8467,"얘기":8468,"공무원":8469,"어쩌":8470,"무조건":8471,"사고":8472,"뉴스":8473,"사과":8474,"##것이다":8475,"30":8476,"##가고":8477,"##려는":8478,"그걸":8479,"어찌":8480,"##하며":8481,"##하세요":8482,"대단":8483,"그리":8484,"시간":8485,"황교안":8486,"본인":8487,"얼굴":8488,"##머니":8489,"응원":8490,"토착왜구":8491,"머리":8492,"지원":8493,"지역":8494,"문죄":8495,"외교":8496,"##당은":8497,"하는데":8498,"##되면":8499,"기레기":8500,"외국":8501,"못한":8502,"##밖에":8503,"##들에게":8504,"##해야지":8505,"모르는":8506,"##리지":8507,"행동":8508,"나도":8509,"앞으로":8510,"되는":8511,"엄청":8512,"##개혁":8513,"다니":8514,"##건가":8515,"##수있":8516,"##기도":8517,"##했는데":8518,"있을":8519,"##국가":8520,"해도":8521,"##스로":8522,"정책":8523,"내려":8524,"하루":8525,"니네":8526,"삼성":8527,"힘들":8528,"아무리":8529,"역사":8530,"윤석":8531,"##리면":8532,"우리가":8533,"##보니":8534,"지랄":8535,"##한데":8536,"촛불":8537,"사이":8538,"중요":8539,"##럼프":8540,"하는거":8541,"검사":8542,"아니냐":8543,"것이":8544,"가능":8545,"##민주":8546,"가장":8547,"대통령이":8548,"##려면":8549,"##아먹":8550,"대가리":8551,"더불어":8552,"##조사":8553,"시민":8554,"##생각":8555,"것이다":8556,"사건":8557,"먹고":8558,"나쁜":8559,"집단":8560,"저렇게":8561,"법무":8562,"전쟁":8563,"오늘":8564,"트럼프":8565,"##라지":8566,"난리":8567,"개인":8568,"가지고":8569,"##기고":8570,"공수":8571,"일베":8572,"미래":8573,"중국인":8574,"##것들이":8575,"##력이":8576,"문재인이":8577,"##대는":8578,"진정":8579,"##건지":8580,"지지율":8581,"##하겠":8582,"50":8583,"일반":8584,"##남불":8585,"##려서":8586,"##하던":8587,"##았다":8588,"증거":8589,"##로남불":8590,"친일파":8591,"##대가":8592,"##되고":8593,"해결":8594,"이나라":8595,"##도록":8596,"공수처":8597,"해서":8598,"방송":8599,"##었는데":8600,"18":8601,"##받고":8602,"무식":8603,"같다":8604,"##대가리":8605,"가서":8606,"##끼리":8607,"서민":8608,"##드는":8609,"##대표":8610,"##거야":8611,"부끄":8612,"##들만":8613,"교육":8614,"##나서":8615,"나는":8616,"일본이":8617,"##한게":8618,"최고":8619,"불법":8620,"##들고":8621,"##아요":8622,"##르고":8623,"진보":8624,"이야":8625,"개혁":8626,"양심":8627,"정부가":8628,"없이":8629,"##라서":8630,"공개":8631,"##인간":8632,"더러운":8633,"만든":8634,"이래":8635,"팩트":8636,"반일":8637,"관심":8638,"매국":8639,"##간다":8640,"된다":8641,"##수도":8642,"##는거야":8643,"알바":8644,"##드시":8645,"##내고":8646,"##난다":8647,"##해주":8648,"##기사":8649,"애들":8650,"불쌍":8651,"##에서는":8652,"부정":8653,"진실":8654,"못하는":8655,"##자들이":8656,"개소리":8657,"##자를":8658,"##나오":8659,"정신차":8660,"나온":8661,"##리를":8662,"##이버":8663,"##세먼":8664,"##을때":8665,"##대한":8666,"있네":8667,"##심히":8668,"가만":8669,"##라면":8670,"조국이":8671,"같은데":8672,"사는":8673,"그런데":8674,"있나":8675,"##조작":8676,"유시민":8677,"##일이":8678,"##봐야":8679,"맞는":8680,"##경제":8681,"있으면":8682,"스스로":8683,"우한":8684,"넘어":8685,"살인":8686,"##마다":8687,"멍청":8688,"##이러":8689,"확실":8690,"해외":8691,"##원이":8692,"##명이":8693,"여성":8694,"지켜":8695,"틀딱":8696,"##은이":8697,"인권":8698,"제일":8699,"전세":8700,"투표":8701,"거지":8702,"돼지":8703,"##프로":8704,"##할때":8705,"평화":8706,"##바리":8707,"##지마라":8708,"##것은":8709,"어디서":8710,"있고":8711,"말을":8712,"결과":8713,"내로남불":8714,"공부":8715,"안되는":8716,"위한":8717,"##란다":8718,"무시":8719,"한국당":8720,"솔직":8721,"조용":8722,"바보":8723,"뻔뻔":8724,"열심히":8725,"##지면":8726,"대학":8727,"##식이":8728,"##이팅":8729,"사람은":8730,"당장":8731,"문제가":8732,"노무":8733,"국민들은":8734,"##있다":8735,"##명박":8736,"가짜뉴스":8737,"따라":8738,"##문제":8739,"문빠":8740,"여러":8741,"##보자":8742,"않는":8743,"##마디":8744,"이름":8745,"인생":8746,"밝혀":8747,"시켜":8748,"있어":8749,"##것을":8750,"지나":8751,"밖에":8752,"##동산":8753,"미세먼":8754,"##려야":8755,"그때":8756,"종교":8757,"##차피":8758,"윤석열":8759,"없애":8760,"불매":8761,"네이버":8762,"##했다고":8763,"##으면서":8764,"##인은":8765,"다들":8766,"##던가":8767,"민주주의":8768,"너네":8769,"##보네":8770,"학교":8771,"##금지":8772,"##한국":8773,"의료":8774,"간첩":8775,"안타":8776,"사형":8777,"이명박":8778,"어차피":8779,"짱깨":8780,"##부분":8781,"잡아":8782,"##는거다":8783,"반드시":8784,"않고":8785,"못하고":8786,"월급":8787,"거기":8788,"##국에":8789,"##진다":8790,"국내":8791,"대표":8792,"처음":8793,"##들과":8794,"##스트":8795,"##워서":8796,"노무현":8797,"무서":8798,"교회":8799,"##겠지만":8800,"##만큼":8801,"검찰개혁":8802,"나이":8803,"반성":8804,"##적이":8805,"정신병":8806,"부동산":8807,"나가":8808,"것도":8809,"임명":8810,"대체":8811,"##정신":8812,"##린다":8813,"과거":8814,"공산주의":8815,"안하고":8816,"사퇴":8817,"##라리":8818,"##아닌":8819,"말도":8820,"해야지":8821,"봐라":8822,"보다":8823,"##은거":8824,"##져라":8825,"하네":8826,"있냐":8827,"궁금":8828,"그러니":8829,"뭐냐":8830,"##할수":8831,"결혼":8832,"조금":8833,"사회주의":8834,"##상이":8835,"인간이":8836,"하면서":8837,"##져야":8838,"공산당":8839,"##지지":8840,"않았":8841,"학생":8842,"##이러스":8843,"보니":8844,"##에서도":8845,"모르고":8846,"##겁니다":8847,"감사":8848,"있으니":8849,"##고싶":8850,"##거라":8851,"것은":8852,"##사일":8853,"##아치":8854,"공정":8855,"일본은":8856,"하시":8857,"##수준":8858,"군대":8859,"않은":8860,"##단체":8861,"##나는":8862,"확진":8863,"종북":8864,"##거든":8865,"의원":8866,"안된다":8867,"##같다":8868,"알아":8869,"조선족":8870,"능력":8871,"원래":8872,"차라리":8873,"아는":8874,"##구요":8875,"솔직히":8876,"##가요":8877,"서로":8878,"마라":8879,"##기로":8880,"당연히":8881,"생각이":8882,"모습":8883,"혼자":8884,"판단":8885,"인간들":8886,"##으니까":8887,"있지":8888,"##시대":8889,"##하라고":8890,"어려":8891,"##해보":8892,"##다는게":8893,"평생":8894,"지가":8895,"##이들":8896,"하지만":8897,"비교":8898,"조선일보":8899,"감염":8900,"받고":8901,"법무부":8902,"##조선":8903,"##랍니다":8904,"진심":8905,"니들은":8906,"싫어":8907,"사람들은":8908,"올라":8909,"사진":8910,"어린":8911,"정치인":8912,"보는":8913,"40":8914,"##장을":8915,"##히려":8916,"이기":8917,"##놈이":8918,"국민은":8919,"##지를":8920,"운동":8921,"지들이":8922,"이재":8923,"도와":8924,"문죄인":8925,"##인거":8926,"##없고":8927,"한심한":8928,"##해요":8929,"자꾸":8930,"##국이":8931,"기본":8932,"##순실":8933,"비판":8934,"##들한테":8935,"##선거":8936,"오히려":8937,"화이팅":8938,"맨날":8939,"##말이":8940,"##르는":8941,"최저":8942,"문재인은":8943,"##자나":8944,"##는거냐":8945,"내년":8946,"##인다":8947,"하여":8948,"사라":8949,"무엇":8950,"##식으로":8951,"##하다고":8952,"사법":8953,"그거":8954,"일부":8955,"교수":8956,"##어야지":8957,"##우고":8958,"##가지고":8959,"때문":8960,"##이었":8961,"##시키고":8962,"회사":8963,"이유가":8964,"놈들":8965,"거의":8966,"위해서":8967,"하냐":8968,"찾아":8969,"그럴":8970,"##나면":8971,"태극":8972,"##가면":8973,"##이라면":8974,"싶다":8975,"##정희":8976,"장난":8977,"한마디":8978,"현재":8979,"자살":8980,"지금은":8981,"있습니다":8982,"정부는":8983,"##했던":8984,"야당":8985,"##까요":8986,"없네":8987,"매국노":8988,"지키":8989,"##상도":8990,"치료":8991,"있다고":8992,"기회":8993,"비리":8994,"알았":8995,"그동안":8996,"##자고":8997,"집값":8998,"##지요":8999,"##야한다":9000,"국정":9001,"쪽바리":9002,"##로운":9003,"사랑":9004,"나서":9005,"문통":9006,"했는데":9007,"항상":9008,"다르":9009,"애국":9010,"정당":9011,"##노총":9012,"저러":9013,"좋겠다":9014,"그나":9015,"가지":9016,"하는게":9017,"아냐":9018,"이제는":9019,"##하는건":9020,"사용":9021,"고생":9022,"##성을":9023,"주둥":9024,"친구":9025,"미세먼지":9026,"대부분":9027,"아들":9028,"##한건":9029,"기부":9030,"최순실":9031,"##에선":9032,"보이":9033,"##공자":9034,"가는":9035,"신경":9036,"##더만":9037,"##한다는":9038,"너는":9039,"##들이다":9040,"##먹는":9041,"기억":9042,"##나고":9043,"##수사":9044,"심판":9045,"박정희":9046,"존재":9047,"한다고":9048,"자빠":9049,"그건":9050,"##어버":9051,"자격":9052,"##집단":9053,"##에요":9054,"주변":9055,"라고":9056,"헛소리":9057,"무섭":9058,"판사":9059,"##가라":9060,"감옥":9061,"분명":9062,"눈치":9063,"##님이":9064,"##시길":9065,"##시장":9066,"##시아":9067,"##학생":9068,"나왔":9069,"몰아":9070,"일이":9071,"광주":9072,"끝까지":9073,"##만이":9074,"시장":9075,"없는데":9076,"그것도":9077,"드러":9078,"##되어":9079,"나와":9080,"관련":9081,"##하지만":9082,"일단":9083,"전문":9084,"개판":9085,"##군요":9086,"독립":9087,"##사파":9088,"이야기":9089,"##지게":9090,"최소":9091,"있음":9092,"##겠다고":9093,"할머니":9094,"변호":9095,"##우는":9096,"##바로":9097,"자리":9098,"직접":9099,"나올":9100,"##0년":9101,"이걸":9102,"##지마":9103,"힘내":9104,"기생":9105,"##파트":9106,"의심":9107,"어이":9108,"논리":9109,"##사람이":9110,"전혀":9111,"바이러스":9112,"##시는":9113,"##인줄":9114,"미사일":9115,"전세계":9116,"강제":9117,"국제":9118,"##도가":9119,"돈이":9120,"##듯이":9121,"##분이":9122,"기다":9123,"도움":9124,"최악":9125,"남의":9126,"말하는":9127,"##주면":9128,"피해자":9129,"엄마":9130,"##봐도":9131,"내용":9132,"심각":9133,"강남":9134,"여행":9135,"##보는":9136,"##정이":9137,"15":9138,"##사건":9139,"물어":9140,"광화":9141,"##던지":9142,"우리는":9143,"역대":9144,"노조":9145,"선택":9146,"##냐고":9147,"똑같은":9148,"응원합니다":9149,"양아치":9150,"##했으면":9151,"의사":9152,"것을":9153,"되었":9154,"위선":9155,"자체가":9156,"##하지말고":9157,"함께":9158,"그랬":9159,"##업자":9160,"##분들":9161,"의혹":9162,"목숨":9163,"인터":9164,"민족":9165,"일제":9166,"무능한":9167,"##18":9168,"철저":9169,"아마":9170,"대변":9171,"##나게":9172,"상관":9173,"##문회":9174,"너도":9175,"병원":9176,"##세력":9177,"미국이":9178,"태극기":9179,"##때는":9180,"##아도":9181,"사망":9182,"##임금":9183,"집회":9184,"##내는":9185,"노력":9186,"ㅉㅉㅉ":9187,"##하는지":9188,"돈을":9189,"끌어":9190,"검찰이":9191,"사이비":9192,"아닌데":9193,"쓰고":9194,"##이로":9195,"더럽":9196,"##총장":9197,"공감":9198,"이해가":9199,"##더라도":9200,"아닙":9201,"##줘야":9202,"위험":9203,"우파":9204,"방법":9205,"나중에":9206,"이것":9207,"한국인":9208,"중국에":9209,"하늘":9210,"주장":9211,"했다":9212,"##겹다":9213,"온갖":9214,"되어":9215,"이정도":9216,"##안부":9217,"##정치":9218,"연예":9219,"알아서":9220,"사기꾼":9221,"입니다":9222,"대책":9223,"답답":9224,"##가족":9225,"세금으로":9226,"200":9227,"##돌아":9228,"누군":9229,"비난":9230,"일을":9231,"가만히":9232,"##수록":9233,"그저":9234,"##기만":9235,"ㅎㅎㅎ":9236,"##거냐":9237,"하니":9238,"바뀌":9239,"상식":9240,"##두환":9241,"준비":9242,"##을텐데":9243,"재앙이":9244,"어쩔":9245,"믿고":9246,"것들이":9247,"재산":9248,"없음":9249,"특히":9250,"괜찮":9251,"##사고":9252,"이럴":9253,"##쓰고":9254,"뭔가":9255,"물론":9256,"##여서":9257,"##지말":9258,"말은":9259,"##하네요":9260,"싶은":9261,"##교육":9262,"말로":9263,"대응":9264,"##합시다":9265,"##상을":9266,"안타깝":9267,"건강":9268,"택시":9269,"##느라":9270,"일자리":9271,"자영":9272,"##습니까":9273,"사태":9274,"##해야한다":9275,"##당히":9276,"##많은":9277,"그러면":9278,"억울":9279,"##든지":9280,"북한에":9281,"##부대":9282,"처럼":9283,"대기업":9284,"##지원":9285,"가격":9286,"하세요":9287,"고소":9288,"당신이":9289,"자유한국":9290,"느그":9291,"##하려고":9292,"안전":9293,"하다":9294,"##정을":9295,"##하니까":9296,"##걸로":9297,"기대":9298,"것들":9299,"##선동":9300,"전두환":9301,"부터":9302,"사람을":9303,"더이상":9304,"대해":9305,"바랍니다":9306,"##만명":9307,"수출":9308,"##놈들이":9309,"에휴":9310,"대선":9311,"##할까":9312,"주사파":9313,"##하고있":9314,"젊은":9315,"페미":9316,"똑같":9317,"25":9318,"위안부":9319,"미통":9320,"기술":9321,"##온다":9322,"애초":9323,"여당":9324,"나베":9325,"조용히":9326,"똑같이":9327,"무너":9328,"보호":9329,"##이라니":9330,"##져서":9331,"일본에":9332,"##철수":9333,"짱개":9334,"오래":9335,"받을":9336,"아닐":9337,"##만에":9338,"하자":9339,"있다는":9340,"그대로":9341,"확인":9342,"생각하는":9343,"아니라고":9344,"##됩니다":9345,"자랑":9346,"##었으면":9347,"##위해":9348,"시대":9349,"##정책":9350,"##스럽다":9351,"##관계":9352,"아니지":9353,"##자기":9354,"이리":9355,"통일":9356,"##세금":9357,"##중동":9358,"##심이":9359,"문재앙이":9360,"보기":9361,"동네":9362,"##자로":9363,"가라":9364,"북한이":9365,"청문회":9366,"국개":9367,"수준이":9368,"여기서":9369,"생각해":9370,"##생활":9371,"##단다":9372,"노동":9373,"모른":9374,"##겠나":9375,"영화":9376,"##그네":9377,"2년":9378,"수도":9379,"되고":9380,"운전":9381,"깨끗":9382,"고통":9383,"##폐렴":9384,"##진핑":9385,"막말":9386,"힘든":9387,"자국민":9388,"많다":9389,"##사람들":9390,"##이트":9391,"##라니":9392,"모자":9393,"의미":9394,"쓰는":9395,"인사":9396,"원숭":9397,"본다":9398,"만들고":9399,"가진":9400,"##레임":9401,"하나도":9402,"지난":9403,"##어가":9404,"##수를":9405,"집권":9406,"진정한":9407,"에라이":9408,"기생충":9409,"##인가요":9410,"##는가":9411,"##주도":9412,"과연":9413,"들고":9414,"정은이":9415,"중국이":9416,"광화문":9417,"민노총":9418,"한국은":9419,"남편":9420,"##을거":9421,"##만한":9422,"##사회":9423,"왜구":9424,"##졌네":9425,"관계":9426,"아파트":9427,"판결":9428,"벌써":9429,"이놈":9430,"분노":9431,"빼고":9432,"##겠다는":9433,"놈들이":9434,"지도":9435,"표현":9436,"않는다":9437,"##할거":9438,"금지":9439,"##범죄":9440,"##되지":9441,"##리네":9442,"##진국":9443,"이익":9444,"##줘라":9445,"##잖아요":9446,"서울대":9447,"아무것도":9448,"그나마":9449,"##팔이":9450,"##자들은":9451,"아예":9452,"##민주주의":9453,"저게":9454,"상대":9455,"문제인":9456,"악마":9457,"이상한":9458,"최저임금":9459,"##을듯":9460,"지금까지":9461,"기가":9462,"##물이":9463,"진중":9464,"##고도":9465,"되지":9466,"봐도":9467,"지금도":9468,"##겠네요":9469,"##보내":9470,"출신":9471,"##하러":9472,"몰랐":9473,"조중동":9474,"##그러":9475,"문씨":9476,"##두고":9477,"보도":9478,"돌아가":9479,"##했네":9480,"##받아":9481,"##루킹":9482,"대한민국을":9483,"##언론":9484,"한심하다":9485,"투자":9486,"뽑아":9487,"청원":9488,"민주당이":9489,"잘못된":9490,"##한것":9491,"저지":9492,"바꿔":9493,"없어서":9494,"옹호":9495,"우선":9496,"뭐라":9497,"까지":9498,"##하려":9499,"입장":9500,"웃기":9501,"법을":9502,"포기":9503,"##명을":9504,"소득":9505,"##력을":9506,"시진핑":9507,"발언":9508,"하지말고":9509,"생겼":9510,"##으며":9511,"좌좀":9512,"대놓고":9513,"아가리":9514,"하는짓":9515,"시위":9516,"대한민국의":9517,"##댓글":9518,"##가가":9519,"##방송":9520,"미쳤":9521,"##이를":9522,"강력":9523,"어휴":9524,"없지":9525,"집에":9526,"##자도":9527,"죽은":9528,"놈이":9529,"부산":9530,"극우":9531,"##잡고":9532,"치매":9533,"본인이":9534,"두고":9535,"국방":9536,"아프":9537,"##없어":9538,"정확":9539,"##당한":9540,"저거":9541,"이래서":9542,"받는":9543,"불매운동":9544,"##가야":9545,"가져":9546,"바꾸":9547,"갑자기":9548,"애초에":9549,"##ㅎㅎ":9550,"관리":9551,"진중권":9552,"##트남":9553,"전화":9554,"할수":9555,"중앙":9556,"노인":9557,"부끄럽":9558,"인간들이":9559,"##겠습니다":9560,"##시오":9561,"부탁":9562,"해주":9563,"입국금지":9564,"##미향":9565,"생각을":9566,"##으려고":9567,"주고":9568,"사업":9569,"설치":9570,"##좌파":9571,"대한민국이":9572,"##나보네":9573,"단체":9574,"##여행":9575,"되면":9576,"올려":9577,"발전":9578,"그래야":9579,"##겠죠":9580,"죄다":9581,"바라":9582,"조심":9583,"애들이":9584,"##시켜라":9585,"이딴":9586,"유치":9587,"##공산":9588,"그렇지":9589,"투기":9590,"##하겠다":9591,"나오는":9592,"문정부":9593,"제목":9594,"##받는":9595,"한테":9596,"실제":9597,"만드":9598,"통합":9599,"##사를":9600,"##독교":9601,"말씀":9602,"##반도":9603,"청년":9604,"무식한":9605,"살고":9606,"훨씬":9607,"아버":9608,"지지하는":9609,"제정신":9610,"한국이":9611,"##질이":9612,"당선":9613,"생긴":9614,"##시킨":9615,"##가락":9616,"똑바로":9617,"행복":9618,"##수는":9619,"윤미향":9620,"##머리":9621,"없으면":9622,"##하더니":9623,"자가":9624,"##인듯":9625,"##따위":9626,"##슬람":9627,"##까봐":9628,"말아":9629,"없었":9630,"비례":9631,"안나":9632,"부족":9633,"##가능":9634,"##사태":9635,"싫다":9636,"##달라고":9637,"물러":9638,"이번에":9639,"조국은":9640,"못하게":9641,"때려":9642,"경제가":9643,"영원":9644,"##OOO":9645,"죽여":9646,"받았":9647,"꼬라지":9648,"악플":9649,"특검":9650,"##하는것":9651,"##자의":9652,"인민":9653,"우리도":9654,"##인의":9655,"##지역":9656,"도둑":9657,"유튜":9658,"짜증":9659,"ㅈㄹ":9660,"남한":9661,"나라는":9662,"주는":9663,"##했냐":9664,"충분":9665,"##서는":9666,"박원":9667,"##구리":9668,"3년":9669,"선동질":9670,"##제에":9671,"민주화":9672,"불안":9673,"##짓을":9674,"미쳐":9675,"호구":9676,"희생":9677,"##체를":9678,"전에":9679,"집안":9680,"없다고":9681,"##위에":9682,"생활":9683,"##쓰레기":9684,"12":9685,"빨갱":9686,"기사를":9687,"구라":9688,"물타":9689,"##하신":9690,"##같은데":9691,"베트남":9692,"##자식":9693,"쪽팔":9694,"미개":9695,"##학교":9696,"멍청한":9697,"##되었":9698,"있어야":9699,"##인을":9700,"자기가":9701,"##려나":9702,"혹시":9703,"10년":9704,"범죄자":9705,"아닙니다":9706,"##없네":9707,"재판":9708,"경험":9709,"신고":9710,"민주당은":9711,"환경":9712,"##미터":9713,"이러니":9714,"손혜":9715,"않나":9716,"방사":9717,"따로":9718,"##떨어":9719,"이중":9720,"##싶다":9721,"자유한국당":9722,"감성":9723,"살아라":9724,"있을까":9725,"짓거리":9726,"수십":9727,"##했지":9728,"비슷":9729,"##지로":9730,"전국민":9731,"##한번":9732,"정권이":9733,"##하지마라":9734,"##간에":9735,"직원":9736,"많아":9737,"드루킹":9738,"##먹을":9739,"##립니다":9740,"##먹은":9741,"지방":9742,"언제까지":9743,"당신은":9744,"##애들":9745,"이런거":9746,"있는지":9747,"쓰레기들":9748,"폭망":9749,"##에만":9750,"분열":9751,"만드는":9752,"돌려":9753,"거리":9754,"##이든":9755,"방역":9756,"60":9757,"##줌마":9758,"나라냐":9759,"등등":9760,"미군":9761,"##어준":9762,"놓고":9763,"518":9764,"발표":9765,"##수수":9766,"대통령님":9767,"북괴":9768,"쩝쩝":9769,"##ㅉㅉ":9770,"##는구나":9771,"##대중":9772,"운영":9773,"장사":9774,"어렵":9775,"##니깐":9776,"부르":9777,"##개월":9778,"##미애":9779,"생산":9780,"##일까":9781,"##있냐":9782,"국민들을":9783,"##기들":9784,"문정권":9785,"다행":9786,"##인들이":9787,"##있고":9788,"##해봐라":9789,"##조차":9790,"##그래":9791,"유공자":9792,"##나간":9793,"수입":9794,"매일":9795,"##부로":9796,"확진자":9797,"불러":9798,"##당에":9799,"가해":9800,"##폭행":9801,"미안":9802,"아닌가요":9803,"##19":9804,"##독재":9805,"꼴통":9806,"개가":9807,"찬성":9808,"들어가":9809,"처리":9810,"입만":9811,"기준":9812,"못할":9813,"승리":9814,"당시":9815,"##득권":9816,"우리나라는":9817,"안좋":9818,"중국은":9819,"프레임":9820,"희망":9821,"알려":9822,"법무부장관":9823,"신뢰":9824,"적당히":9825,"##오는":9826,"##였다":9827,"##구먼":9828,"뇌가":9829,"죽을":9830,"##공개":9831,"##보수":9832,"##화가":9833,"총장":9834,"한국에":9835,"저질":9836,"교활":9837,"받은":9838,"조국을":9839,"빨아":9840,"점점":9841,"ㅅㅂ":9842,"맞다":9843,"안된":9844,"인구":9845,"유지":9846,"안철수":9847,"##구석":9848,"##준표":9849,"대통령은":9850,"##했고":9851,"가면":9852,"저기":9853,"나라에서":9854,"있어서":9855,"##리자":9856,"19":9857,"##일을":9858,"문대통령":9859,"씨부":9860,"##해주세요":9861,"##집회":9862,"세상이":9863,"너같은":9864,"뒤집":9865,"썩은":9866,"##지네":9867,"정보":9868,"##말로":9869,"원전":9870,"##치가":9871,"만약":9872,"혜택":9873,"전국":9874,"##빨갱이":9875,"##000":9876,"1년":9877,"발생":9878,"##장에":9879,"하던":9880,"##하지않":9881,"하는지":9882,"자유민주주의":9883,"##재앙":9884,"공격":9885,"돈으로":9886,"##라인":9887,"인터넷":9888,"아니야":9889,"남탓":9890,"들이":9891,"느낌":9892,"요구":9893,"##하다가":9894,"가슴":9895,"없으니":9896,"감방":9897,"그러니까":9898,"일어나":9899,"##할듯":9900,"##었나":9901,"바란다":9902,"협박":9903,"고발":9904,"##이도":9905,"우한폐렴":9906,"취급":9907,"명단":9908,"어제":9909,"##있네":9910,"##어리":9911,"가르":9912,"##치를":9913,"웃긴":9914,"정의당":9915,"게임":9916,"##도로":9917,"##본다":9918,"##리기":9919,"헌법":9920,"고민":9921,"##부모":9922,"아깝":9923,"돈벌":9924,"사람도":9925,"70":9926,"무서운":9927,"바른":9928,"일어":9929,"새끼들":9930,"고맙":9931,"홍준표":9932,"##새끼들":9933,"소비":9934,"##리게":9935,"지껄":9936,"하기":9937,"안가":9938,"누굴":9939,"저리":9940,"싸움":9941,"##검사":9942,"느끼":9943,"친중":9944,"있는거":9945,"##아닌가":9946,"철저히":9947,"##대고":9948,"일본의":9949,"나라에":9950,"##입니까":9951,"##보단":9952,"정경":9953,"##님들":9954,"쉽게":9955,"관광":9956,"방사능":9957,"기득권":9958,"옛날":9959,"아나":9960,"경우":9961,"밀어":9962,"존나":9963,"##이네요":9964,"대통":9965,"##감정":9966,"믿을":9967,"대처":9968,"감정":9969,"어이가":9970,"노예":9971,"##사람은":9972,"확실히":9973,"##것들은":9974,"격리":9975,"의료진":9976,"##악한":9977,"물타기":9978,"예전":9979,"지옥":9980,"개발":9981,"손혜원":9982,"##상에":9983,"무죄":9984,"성공":9985,"늘어":9986,"벌어":9987,"결정":9988,"주식":9989,"정치를":9990,"러시아":9991,"##주기":9992,"자한당은":9993,"전염":9994,"##년이":9995,"##심을":9996,"정작":9997,"##부가":9998,"나라의":9999,"표창":10000,"하지마라":10001,"잘하고":10002,"##은데":10003,"##보다는":10004,"##도를":10005,"하긴":10006,"##보기":10007,"##들이나":10008,"됩니다":10009,"##만도":10010,"대해서":10011,"유럽":10012,"##상황":10013,"냄새":10014,"좋아하는":10015,"##때문":10016,"답이다":10017,"마세요":10018,"##놓은":10019,"그러나":10020,"뭔지":10021,"##레이":10022,"몰라":10023,"##되서":10024,"자신의":10025,"##렸다":10026,"살기":10027,"목사":10028,"##길래":10029,"이후":10030,"##겠어":10031,"##한다면":10032,"굳이":10033,"고마":10034,"##일뿐":10035,"##이지만":10036,"대한민국은":10037,"##러워":10038,"##지막":10039,"의견":10040,"국가가":10041,"##하셨":10042,"물고":10043,"통계":10044,"나와서":10045,"나오면":10046,"착각":10047,"답이":10048,"##바닥":10049,"##말을":10050,"##타령":10051,"##기관":10052,"힘을":10053,"가정":10054,"똑똑":10055,"이제와서":10056,"많네":10057,"단식":10058,"죄가":10059,"군사":10060,"달라":10061,"모양":10062,"##의를":10063,"##까운":10064,"문제는":10065,"일으":10066,"##쳐서":10067,"미국은":10068,"세상에":10069,"개념":10070,"발악":10071,"없습니다":10072,"##진짜":10073,"지구":10074,"남북":10075,"자한당이":10076,"이지":10077,"##쟁이":10078,"다녀":10079,"##때까지":10080,"어려운":10081,"일본을":10082,"손해":10083,"많은데":10084,"기독교":10085,"##누리":10086,"유니":10087,"추미애":10088,"또라이":10089,"마약":10090,"선생":10091,"취업":10092,"밝히":10093,"우린":10094,"##아버":10095,"이낙":10096,"##가를":10097,"변호사":10098,"말아먹":10099,"OOO들":10100,"##장은":10101,"##로는":10102,"집에서":10103,"##겠어요":10104,"##으라고":10105,"##돈으로":10106,"보인다":10107,"바람":10108,"##한테는":10109,"신문":10110,"없나":10111,"최소한":10112,"평등":10113,"리얼":10114,"보자":10115,"##있는데":10116,"여러분":10117,"마찬":10118,"한반도":10119,"광고":10120,"이만":10121,"뭐라고":10122,"이민":10123,"##받을":10124,"여자가":10125,"다를":10126,"##졌다":10127,"##거고":10128,"했던":10129,"아무도":10130,"여론조사":10131,"##적이고":10132,"참으로":10133,"미통당":10134,"##안하고":10135,"둘다":10136,"대출":10137,"국민들의":10138,"##있나":10139,"##우면":10140,"없을":10141,"존경":10142,"##상은":10143,"힘들어":10144,"한다는":10145,"비싸":10146,"조직":10147,"강간":10148,"유튜브":10149,"않을":10150,"##리냐":10151,"규제":10152,"##용이":10153,"대신":10154,"자기들":10155,"##하겠지":10156,"하나님":10157,"수구":10158,"운운":10159,"용서":10160,"시원":10161,"##쓰는":10162,"죽창":10163,"##출신":10164,"삶은":10165,"##으로서":10166,"안돼":10167,"##때도":10168,"##소년":10169,"믿는":10170,"타령":10171,"##준다":10172,"생기":10173,"##복을":10174,"힘내세요":10175,"거다":10176,"##짜리":10177,"##화를":10178,"대깨문들":10179,"자빠졌네":10180,"근거":10181,"대단한":10182,"기소":10183,"우습":10184,"정신나간":10185,"##연금":10186,"애비":10187,"동물":10188,"한번도":10189,"##일본":10190,"##것같":10191,"갖다":10192,"##었네":10193,"##갔다":10194,"뽑은":10195,"##일은":10196,"##보지":10197,"법이":10198,"##시키는":10199,"##십니다":10200,"등신":10201,"동맹":10202,"한명":10203,"##시켜야":10204,"##없음":10205,"갖고":10206,"떠나":10207,"없냐":10208,"##도는":10209,"자존":10210,"##이기":10211,"##지어":10212,"아줌마":10213,"눈물":10214,"빠져":10215,"맞지":10216,"했으면":10217,"감싸":10218,"왜이":10219,"마지막":10220,"##워라":10221,"죽어":10222,"##조리":10223,"쉴드":10224,"##났다":10225,"이낙연":10226,"정치적":10227,"##테니":10228,"##수수색":10229,"ㅂㅅ":10230,"##거면":10231,"말만":10232,"20대":10233,"기분":10234,"##씨가":10235,"문가":10236,"마누":10237,"도덕":10238,"##시절":10239,"철수":10240,"##했다는":10241,"##로지":10242,"주민":10243,"##했나":10244,"도망":10245,"##아니냐":10246,"통과":10247,"김대중":10248,"홍콩":10249,"필요한":10250,"검찰은":10251,"경상도":10252,"마치":10253,"합시다":10254,"##민족":10255,"##하길":10256,"죄를":10257,"뭐하는":10258,"##청산":10259,"좃선":10260,"동원":10261,"##림픽":10262,"##있으면":10263,"라는":10264,"문슬람":10265,"받아야":10266,"크게":10267,"##저리":10268,"자영업":10269,"칭찬":10270,"수가":10271,"생각하고":10272,"자동":10273,"##상으로":10274,"역겨":10275,"폐지":10276,"성폭행":10277,"어리":10278,"김일":10279,"##필요":10280,"해체":10281,"대다":10282,"##짓거리":10283,"정신병자":10284,"##농단":10285,"자본":10286,"대변인":10287,"시절":10288,"실망":10289,"##았는데":10290,"무기":10291,"##느냐":10292,"우리의":10293,"연구":10294,"자녀":10295,"##그리":10296,"한국의":10297,"외국인":10298,"##검찰":10299,"실패":10300,"##셔서":10301,"중요한":10302,"##아니라":10303,"##금을":10304,"못해":10305,"저도":10306,"##들에":10307,"진행":10308,"주세요":10309,"겁니다":10310,"일은":10311,"##시면":10312,"##것만":10313,"##나가":10314,"유니클":10315,"한달":10316,"##한거지":10317,"##속에":10318,"##땜에":10319,"##버리고":10320,"우리나라가":10321,"##을까요":10322,"가고":10323,"이것도":10324,"홍어":10325,"##권을":10326,"##위를":10327,"##책임":10328,"대단하다":10329,"##분에":10330,"싸우":10331,"##스러운":10332,"##신도":10333,"아베가":10334,"##아니고":10335,"##참에":10336,"이루":10337,"초등":10338,"개돼지들":10339,"원숭이":10340,"##하다는":10341,"압수수색":10342,"##성은":10343,"##아가":10344,"직장":10345,"문제다":10346,"한거":10347,"##넘들":10348,"봐야":10349,"좋다":10350,"이념":10351,"##무시":10352,"##아냐":10353,"박원순":10354,"외치":10355,"오로지":10356,"##었지":10357,"김경":10358,"생각은":10359,"정권을":10360,"가야":10361,"##받은":10362,"이만희":10363,"##활동":10364,"더욱":10365,"뇌물":10366,"소설":10367,"##여자":10368,"통제":10369,"##시에":10370,"세력":10371,"##는데도":10372,"이재명":10373,"정부의":10374,"소대가리":10375,"좋다고":10376,"해봐라":10377,"자주":10378,"이시":10379,"##예요":10380,"짓을":10381,"거부":10382,"눈에":10383,"또한":10384,"어른":10385,"최악의":10386,"공짜":10387,"##이에":10388,"##르게":10389,"직업":10390,"팔아":10391,"단순":10392,"인물":10393,"##당하고":10394,"뭔데":10395,"괜히":10396,"합의":10397,"문화":10398,"나온다":10399,"현대":10400,"##교수":10401,"정권의":10402,"참여":10403,"일본과":10404,"책임을":10405,"이해찬":10406,"아웃":10407,"##말은":10408,"##었다고":10409,"##으나":10410,"재난":10411,"거기에":10412,"끌어내":10413,"##원도":10414,"설명":10415,"마찬가지":10416,"와서":10417,"정은":10418,"프로":10419,"##어주":10420,"있다면":10421,"그지":10422,"##원에":10423,"##민주당":10424,"##물고":10425,"창피":10426,"포함":10427,"화가":10428,"##아지":10429,"북한은":10430,"먹는":10431,"##사실":10432,"마이":10433,"##되는데":10434,"뭐하냐":10435,"##놈들은":10436,"적극":10437,"한일":10438,"보상":10439,"##께서":10440,"##투표":10441,"으로":10442,"쯧쯧":10443,"역겹다":10444,"완전히":10445,"이참에":10446,"미리":10447,"만나":10448,"진실을":10449,"11":10450,"핑계":10451,"임기":10452,"##달라":10453,"배달":10454,"##다운":10455,"##비리":10456,"##공산당":10457,"되는데":10458,"자연":10459,"##하는거지":10460,"이유는":10461,"##놈의":10462,"당연한":10463,"나불":10464,"무지":10465,"그런거":10466,"후보":10467,"지능":10468,"##하는구나":10469,"올리":10470,"무리":10471,"물건":10472,"##시기":10473,"배신":10474,"##잘못":10475,"나쁘":10476,"하여간":10477,"연예인":10478,"구분":10479,"##원은":10480,"##오면":10481,"##질을":10482,"감사합니다":10483,"##놈은":10484,"##았네":10485,"하라고":10486,"1도":10487,"김정은이":10488,"##입국":10489,"##하고는":10490,"한국에서":10491,"##소득":10492,"소름":10493,"##모양":10494,"영원히":10495,"상태":10496,"부끄러운":10497,"나타":10498,"##꼴통":10499,"챙겨":10500,"##했는지":10501,"혈세":10502,"선진국":10503,"##었냐":10504,"현정부":10505,"300":10506,"나눠":10507,"전체":10508,"##일에":10509,"죽음":10510,"짐승":10511,"한국을":10512,"##이며":10513,"간다":10514,"별로":10515,"##쳐먹":10516,"두번":10517,"오르":10518,"##제품":10519,"큰일":10520,"##위가":10521,"##통수":10522,"합리":10523,"유승":10524,"벌레":10525,"몇년":10526,"##겠니":10527,"##조가":10528,"정부에서":10529,"좀비":10530,"부모가":10531,"유니클로":10532,"나머":10533,"내부":10534,"##든가":10535,"욕하는":10536,"##했을":10537,"##되냐":10538,"변명":10539,"공장":10540,"너가":10541,"80":10542,"후손":10543,"##와라":10544,"##수로":10545,"##으려":10546,"안될":10547,"경쟁":10548,"정상적인":10549,"언론이":10550,"총선에서":10551,"놀아":10552,"##법을":10553,"##그릇":10554,"##하시는":10555,"##네들":10556,"##스럽게":10557,"미치":10558,"##위원":10559,"버티":10560,"되는거":10561,"활동":10562,"하야":10563,"##감이":10564,"전문가":10565,"##있어":10566,"##럽다":10567,"중국에서":10568,"##시요":10569,"불리":10570,"##운전":10571,"전형":10572,"욕먹":10573,"되냐":10574,"##이자":10575,"##었던":10576,"정권은":10577,"##내서":10578,"##줘서":10579,"##위기":10580,"##안이":10581,"하게":10582,"원하는":10583,"세뇌":10584,"##대한민국":10585,"민생":10586,"법무장관":10587,"불편":10588,"##지에":10589,"불쌍한":10590,"반도":10591,"순간":10592,"있지만":10593,"만들어서":10594,"##관이":10595,"노래":10596,"##주택":10597,"움직":10598,"듣고":10599,"##쓴다":10600,"##빠진":10601,"전교":10602,"마누라":10603,"안하는":10604,"##사람들이":10605,"##친다":10606,"##벌레":10607,"1억":10608,"문재인과":10609,"단어":10610,"임금":10611,"않으면":10612,"##스템":10613,"##석희":10614,"국개의원":10615,"함부로":10616,"충분히":10617,"달창들":10618,"좌빨들":10619,"위에":10620,"하더니":10621,"##으세요":10622,"맘대로":10623,"일부러":10624,"##보세요":10625,"저딴":10626,"##나네":10627,"내고":10628,"분들":10629,"알지":10630,"배우":10631,"##해놓고":10632,"##대를":10633,"봅니다":10634,"초딩":10635,"팔아먹":10636,"##겠는데":10637,"음주":10638,"있어요":10639,"만큼":10640,"아빠":10641,"##많이":10642,"공천":10643,"세금을":10644,"##꺼다":10645,"##발이":10646,"다시는":10647,"경제는":10648,"찬양":10649,"천벌":10650,"##리아":10651,"황교활":10652,"##전쟁":10653,"##보험":10654,"국민에게":10655,"##기전에":10656,"맞아":10657,"##임을":10658,"잡고":10659,"##르스":10660,"##거리는":10661,"##해봐":10662,"좌파들":10663,"##앞에":10664,"나라꼴":10665,"동의":10666,"보복":10667,"반미":10668,"벌금":10669,"##스런":10670,"개학":10671,"##디어":10672,"##하려는":10673,"예산":10674,"빨갱이들":10675,"##위로":10676,"하라":10677,"##정당":10678,"사실을":10679,"지금의":10680,"거기서":10681,"##원에서":10682,"주둥이":10683,"##는다고":10684,"##드립니다":10685,"달려":10686,"결론":10687,"검색":10688,"##아리":10689,"시급":10690,"뭐야":10691,"이혼":10692,"부정선거":10693,"##마트":10694,"성장":10695,"있는게":10696,"고려":10697,"대통령을":10698,"애들은":10699,"##라시":10700,"##할것":10701,"사법부":10702,"너나":10703,"이어":10704,"##안에":10705,"##제를":10706,"챙기":10707,"##셔야":10708,"모르겠다":10709,"산다":10710,"느껴":10711,"살려":10712,"자위":10713,"말한":10714,"##고있다":10715,"한두":10716,"혐오":10717,"90":10718,"조만":10719,"목소리":10720,"##원전":10721,"없다는":10722,"클럽":10723,"##방에":10724,"##즈아":10725,"##판에":10726,"무뇌":10727,"대화":10728,"부패":10729,"모를":10730,"모조리":10731,"머리가":10732,"##아이":10733,"##았으면":10734,"너거":10735,"자체":10736,"##인도":10737,"양반":10738,"한미":10739,"##잡아":10740,"영향":10741,"찍어":10742,"영웅":10743,"논문":10744,"##기나":10745,"중소":10746,"지하":10747,"국민세금":10748,"##있음":10749,"##지사":10750,"왜곡":10751,"안해":10752,"기도":10753,"박그네":10754,"201":10755,"하는구나":10756,"지지합니다":10757,"아이들":10758,"##이죠":10759,"자유당":10760,"##줄알":10761,"그만해라":10762,"##따라":10763,"보유":10764,"비정":10765,"보통":10766,"##는것":10767,"운동권":10768,"##서야":10769,"##레스":10770,"이라고":10771,"##대의":10772,"윤석렬":10773,"추종":10774,"##리라":10775,"명예":10776,"예수":10777,"심지어":10778,"잘한다":10779,"##하긴":10780,"##상태":10781,"생명":10782,"틀린":10783,"하지말":10784,"고용":10785,"##씨는":10786,"당당":10787,"##리나":10788,"타고":10789,"의무":10790,"소리를":10791,"대박":10792,"이성":10793,"새로운":10794,"사장":10795,"괴롭":10796,"##국의":10797,"에이":10798,"##에게는":10799,"##치면":10800,"일본으로":10801,"스트":10802,"예배":10803,"이분":10804,"##회사":10805,"속이":10806,"겨우":10807,"##하지마":10808,"꺼져라":10809,"당하고":10810,"##의식":10811,"##세상":10812,"아깝다":10813,"복지":10814,"했다고":10815,"참고":10816,"##라스":10817,"하여튼":10818,"김일성":10819,"##장에서":10820,"어째":10821,"##쳐라":10822,"이용해":10823,"그렇다고":10824,"##치기":10825,"몰려":10826,"재미":10827,"건물":10828,"갑질":10829,"아침":10830,"##패스":10831,"##저기":10832,"##나온다":10833,"난다":10834,"차별":10835,"장기":10836,"##안함":10837,"위조":10838,"문재앙은":10839,"##석이":10840,"폭행":10841,"욕을":10842,"주제에":10843,"##노조":10844,"##재산":10845,"그만큼":10846,"치고":10847,"떳떳":10848,"##신이":10849,"사죄":10850,"돈은":10851,"ㄷㄷ":10852,"이란":10853,"입으로":10854,"##하시고":10855,"여론조작":10856,"언젠":10857,"민심":10858,"옳은":10859,"정도로":10860,"이다":10861,"임대":10862,"재수":10863,"보이는":10864,"먹을":10865,"##아님":10866,"##더냐":10867,"제품":10868,"보여주":10869,"안다":10870,"고위":10871,"봉사":10872,"경찰이":10873,"##되는거":10874,"##타고":10875,"근무":10876,"##소미":10877,"상황이":10878,"엄청난":10879,"북으로":10880,"중공":10881,"정경심":10882,"##대에":10883,"##제가":10884,"갔다":10885,"##곳에":10886,"저는":10887,"정신차려라":10888,"질문":10889,"평소":10890,"같아":10891,"전기":10892,"수백":10893,"데려":10894,"##른다":10895,"후회":10896,"시험":10897,"한남":10898,"취소":10899,"무섭다":10900,"폭력":10901,"아버지":10902,"모두가":10903,"##10":10904,"이런게":10905,"생각하면":10906,"##알바":10907,"남은":10908,"##선을":10909,"이명박근혜":10910,"국민들에게":10911,"대한민국에":10912,"특혜":10913,"손석희":10914,"멀쩡":10915,"바닥":10916,"##하거나":10917,"##겨서":10918,"##만으로":10919,"##버리":10920,"동안":10921,"##죄로":10922,"재벌":10923,"##는건가":10924,"지급":10925,"설마":10926,"그렇고":10927,"맞는말":10928,"증명":10929,"##제도":10930,"##비스":10931,"쳐먹":10932,"중에":10933,"일도":10934,"##그만":10935,"##정권이":10936,"국산":10937,"된다고":10938,"개나":10939,"##롭게":10940,"사상":10941,"모른다":10942,"##비가":10943,"##져도":10944,"조만간":10945,"##새키":10946,"일하는":10947,"##수의":10948,"##국으로":10949,"망해":10950,"적어도":10951,"권력을":10952,"김정":10953,"메르스":10954,"가지가지":10955,"입에":10956,"##이유":10957,"가득":10958,"##했음":10959,"지소미":10960,"기관":10961,"하려고":10962,"인성":10963,"중국몽":10964,"아이고":10965,"마음이":10966,"오지":10967,"사회적":10968,"올림픽":10969,"몰라도":10970,"절대로":10971,"##발전":10972,"구조":10973,"높은":10974,"위협":10975,"박근혜가":10976,"축하":10977,"앞에서":10978,"징역":10979,"##들면":10980,"파악":10981,"다니는":10982,"그것":10983,"졸라":10984,"이득":10985,"방탄":10986,"대중":10987,"##년에":10988,"뒤집어":10989,"김어준":10990,"충성":10991,"ㅅㄲ":10992,"너의":10993,"문재인을":10994,"놈들은":10995,"음식":10996,"정유":10997,"이정도면":10998,"##지나":10999,"##주가":11000,"남자가":11001,"해주세요":11002,"이쯤":11003,"##내야":11004,"모지":11005,"지겹다":11006,"쓸데":11007,"않냐":11008,"신도":11009,"허위":11010,"계획":11011,"##의가":11012,"##좌빨":11013,"##가도":11014,"##20":11015,"겁나":11016,"하며":11017,"##봐요":11018,"신상":11019,"나대":11020,"군인":11021,"우려":11022,"##만들어":11023,"말이다":11024,"500":11025,"##자인":11026,"여기저기":11027,"가자":11028,"박살":11029,"추천":11030,"##리도":11031,"##였는데":11032,"##는건데":11033,"하지마":11034,"유치원":11035,"##이구나":11036,"차단":11037,"안나오":11038,"##bs":11039,"저건":11040,"이전":11041,"꺼져":11042,"낫다":11043,"사드":11044,"유리":11045,"없어요":11046,"데모":11047,"##격이":11048,"##님은":11049,"정치적으로":11050,"##석은":11051,"##한척":11052,"뛰어":11053,"##느니":11054,"풀어":11055,"##제동":11056,"인증":11057,"##주지":11058,"국익":11059,"이것이":11060,"남녀":11061,"##이터":11062,"식민":11063,"시끄":11064,"##이여":11065,"경제를":11066,"##세를":11067,"##신문":11068,"연금":11069,"알게":11070,"##좋은":11071,"##건가요":11072,"줄어":11073,"잘살":11074,"##사기":11075,"고등":11076,"정치인들":11077,"잘하는":11078,"##과는":11079,"##남아":11080,"맞고":11081,"뿐이다":11082,"오직":11083,"행사":11084,"##대변":11085,"지네":11086,"경북":11087,"공약":11088,"##봤자":11089,"##부는":11090,"##함을":11091,"이슈":11092,"앉아":11093,"##덩어리":11094,"##대응":11095,"경기":11096,"비핵":11097,"##경이":11098,"안달":11099,"##통합":11100,"적용":11101,"민식이":11102,"데리고":11103,"##으신":11104,"##BS":11105,"아이가":11106,"예상":11107,"정리":11108,"이런데":11109,"않다":11110,"생각한다":11111,"20년":11112,"죽이고":11113,"걸린":11114,"5년":11115,"흔들":11116,"##마니":11117,"##성장":11118,"기록":11119,"##히고":11120,"자영업자":11121,"각종":11122,"전광":11123,"##빨리":11124,"친북":11125,"##간첩":11126,"거야":11127,"지시":11128,"힘들게":11129,"되나":11130,"##개발":11131,"##것처럼":11132,"훌륭":11133,"해야한다":11134,"버닝":11135,"##정부가":11136,"##매매":11137,"고작":11138,"부들":11139,"##라마":11140,"있어도":11141,"##음이":11142,"탈원전":11143,"공급":11144,"정의로운":11145,"그러게":11146,"##차별":11147,"트럼프가":11148,"##공화":11149,"##하다니":11150,"중국의":11151,"부자":11152,"하니까":11153,"시간이":11154,"##법이":11155,"##하지도":11156,"유일":11157,"한게":11158,"##었고":11159,"##유공자":11160,"여자들":11161,"##해줄":11162,"연봉":11163,"피해를":11164,"반박":11165,"자존심":11166,"##망신":11167,"두려":11168,"##이라서":11169,"너희들":11170,"썩어":11171,"공공":11172,"##되나":11173,"해당":11174,"놀고":11175,"##정보":11176,"베네":11177,"그만하고":11178,"개돼지로":11179,"죽일":11180,"##오고":11181,"전교조":11182,"##하나요":11183,"##는건지":11184,"코스":11185,"##시나":11186,"깜빵":11187,"##명한":11188,"못하":11189,"##해주고":11190,"##당을":11191,"##려도":11192,"제외":11193,"생각합니다":11194,"##래도":11195,"##리는데":11196,"미개한":11197,"죽어나":11198,"아닌지":11199,"문재인의":11200,"총리":11201,"사전":11202,"중도":11203,"##래기":11204,"제2":11205,"##추행":11206,"알면서":11207,"인간은":11208,"##정부는":11209,"##에겐":11210,"##계가":11211,"매우":11212,"지령":11213,"리얼미터":11214,"##여야":11215,"안되고":11216,"민간":11217,"많아서":11218,"연기":11219,"만세":11220,"기사가":11221,"##bc":11222,"웃기는":11223,"도로":11224,"##할수있":11225,"##지못":11226,"감히":11227,"죽이":11228,"정신이":11229,"##학의":11230,"##인들은":11231,"남성":11232,"일베충":11233,"비행":11234,"김제동":11235,"뻔뻔한":11236,"제가":11237,"때문이다":11238,"막아":11239,"산업":11240,"##해지":11241,"##원을":11242,"##30":11243,"비싼":11244,"##동네":11245,"할말":11246,"##군이":11247,"안하면":11248,"##사람들은":11249,"작은":11250,"##재판":11251,"지적":11252,"적폐청산":11253,"##자체":11254,"삭발":11255,"##💙💙":11256,"살다":11257,"통해":11258,"##제로":11259,"##대도":11260,"잘못을":11261,"오늘도":11262,"버스":11263,"장애":11264,"청산":11265,"다른나라":11266,"##럽게":11267,"개입":11268,"##가며":11269,"북한으로":11270,"북한과":11271,"이겨":11272,"안됨":11273,"보면서":11274,"짜파":11275,"반도체":11276,"버리고":11277,"##했어":11278,"##세가":11279,"고집":11280,"##만을":11281,"이승":11282,"##점이":11283,"##시죠":11284,"##시켰":11285,"시키고":11286,"비례대표":11287,"하는건":11288,"하셨":11289,"자신이":11290,"탈북":11291,"달고":11292,"꼰대":11293,"##리다":11294,"수많은":11295,"중소기업":11296,"전광훈":11297,"어떻게든":11298,"##있지":11299,"무시하고":11300,"##리스트":11301,"신기":11302,"##을수":11303,"##경찰":11304,"장학":11305,"##교회":11306,"마시고":11307,"조롱":11308,"모르나":11309,"앞에":11310,"분이":11311,"인도":11312,"민폐":11313,"##으론":11314,"##관련":11315,"신천지가":11316,"특별":11317,"너무나":11318,"같습니다":11319,"##었어":11320,"남아":11321,"조작질":11322,"##고있네":11323,"##바라":11324,"##위한":11325,"내놓":11326,"문제지":11327,"담배":11328,"##할게":11329,"##바른":11330,"떠나서":11331,"돈도":11332,"진작":11333,"지소미아":11334,"염병":11335,"##잡이":11336,"##됐다":11337,"건드":11338,"##때마다":11339,"전염병":11340,"판매":11341,"##만들":11342,"인간들은":11343,"##워야":11344,"##히는":11345,"##구멍":11346,"이래도":11347,"폭동":11348,"다가":11349,"키우":11350,"참석":11351,"##반대":11352,"미국의":11353,"국정농단":11354,"##쪽으로":11355,"##기자":11356,"내는":11357,"올해":11358,"##한지":11359,"장악":11360,"##장으로":11361,"여전":11362,"같아요":11363,"##했으니":11364,"윤총장":11365,"방해":11366,"것들은":11367,"추가":11368,"지지자":11369,"추방":11370,"가즈아":11371,"##세대":11372,"##었음":11373,"지식":11374,"##시마":11375,"좋아요":11376,"못한다":11377,"인재":11378,"해놓고":11379,"##시킬":11380,"##일도":11381,"교통":11382,"이라":11383,"미국에":11384,"##처리":11385,"떠들어":11386,"##이니까":11387,"할줄":11388,"있나요":11389,"가난":11390,"못된":11391,"추경":11392,"약속":11393,"##장난":11394,"공평":11395,"기사는":11396,"##매국":11397,"당신의":11398,"##엘라":11399,"말라":11400,"보수가":11401,"##하에":11402,"원칙":11403,"최대":11404,"##때가":11405,"어쩔수":11406,"##논리":11407,"당신들":11408,"##한가":11409,"##권력":11410,"지지율이":11411,"##할려고":11412,"##단이":11413,"##박이":11414,"부담":11415,"남을":11416,"##처벌":11417,"뜯어":11418,"##없으면":11419,"죄인":11420,"힘이":11421,"##르면":11422,"한나라":11423,"북한의":11424,"##끼들":11425,"지금이":11426,"##거임":11427,"할까":11428,"##정도로":11429,"이니":11430,"자본주의":11431,"기자가":11432,"ㅇㅇ":11433,"독재자":11434,"##비를":11435,"비상":11436,"엉망":11437,"올랐":11438,"도움이":11439,"##50":11440,"가치":11441,"##위는":11442,"보소":11443,"##in":11444,"중국과":11445,"최고의":11446,"##성애":11447,"하는것":11448,"##가네":11449,"참나":11450,"##있게":11451,"##기지":11452,"청구":11453,"확산":11454,"실수":11455,"안됩니다":11456,"##가자":11457,"##탄핵":11458,"해산":11459,"##좋아":11460,"국가를":11461,"스트레스":11462,"##민이":11463,"불가능":11464,"상대로":11465,"있게":11466,"##함이":11467,"우습게":11468,"##다는걸":11469,"자격이":11470,"처먹":11471,"##부들":11472,"##하죠":11473,"패거리":11474,"##아들":11475,"화장":11476,"이순":11477,"##통일":11478,"끌고":11479,"##선이":11480,"뭐니":11481,"버닝썬":11482,"저능":11483,"싹다":11484,"언급":11485,"조장":11486,"1000":11487,"떠들":11488,"##규직":11489,"주면":11490,"##자체가":11491,"한마디로":11492,"##답게":11493,"성범죄":11494,"살았":11495,"효과":11496,"##년은":11497,"##빼고":11498,"목적":11499,"##때부터":11500,"##애들이":11501,"때는":11502,"보네":11503,"특징":11504,"##여라":11505,"고유":11506,"폐기":11507,"주인":11508,"##시지":11509,"근본":11510,"악질":11511,"불쌍하다":11512,"오죽":11513,"구매":11514,"부분":11515,"##업체":11516,"개뿔":11517,"순실":11518,"하나같이":11519,"하고싶":11520,"그네":11521,"맙시다":11522,"##율이":11523,"14":11524,"##도안":11525,"이언":11526,"제주도":11527,"정치에":11528,"삼성이":11529,"##고싶다":11530,"4월":11531,"21":11532,"한걸":11533,"영상":11534,"안쓰":11535,"성추행":11536,"거냐":11537,"정답":11538,"##국을":11539,"##으로는":11540,"##리들":11541,"##었다면":11542,"교사":11543,"##하든":11544,"##청원":11545,"##은게":11546,"밥그릇":11547,"이사람":11548,"살아야":11549,"부추":11550,"이번엔":11551,"손가락":11552,"##생이":11553,"더한":11554,"우리국민":11555,"티비":11556,"일당":11557,"##지키":11558,"태양":11559,"싶어":11560,"##로서":11561,"##싸움":11562,"눈이":11563,"털어":11564,"자식들":11565,"수치":11566,"보세요":11567,"인해":11568,"##것다":11569,"집어":11570,"##후보":11571,"17":11572,"##는거임":11573,"김경수":11574,"보험":11575,"많고":11576,"보이지":11577,"##장도":11578,"##일베":11579,"##리세요":11580,"구역":11581,"망할":11582,"##중에도":11583,"위반":11584,"시청":11585,"##격리":11586,"전략":11587,"##였으면":11588,"##인드":11589,"가게":11590,"##날이":11591,"역할":11592,"국민연금":11593,"못차":11594,"##줘도":11595,"##결과":11596,"망하게":11597,"퇴출":11598,"##치한":11599,"인터뷰":11600,"##안을":11601,"은행":11602,"써라":11603,"##들이네":11604,"미래가":11605,"##기면":11606,"지금이라도":11607,"열받":11608,"온라인":11609,"세상을":11610,"##정권은":11611,"40대":11612,"##개가":11613,"에서":11614,"명복을":11615,"재앙아":11616,"##나라가":11617,"알아야":11618,"##가는데":11619,"ㅈㄴ":11620,"자동차":11621,"##다는건":11622,"검증":11623,"##하시길":11624,"넘들":11625,"##렸네":11626,"선전":11627,"핵심":11628,"그것이":11629,"대한민국에서":11630,"아닐까":11631,"##인게":11632,"##마냥":11633,"##되어야":11634,"##에다":11635,"##시간에":11636,"출산":11637,"궁금하다":11638,"전형적인":11639,"어울":11640,"있구나":11641,"우리나라에":11642,"문죄앙":11643,"니들도":11644,"젊은이":11645,"##자연":11646,"것입니다":11647,"돌아다니":11648,"끼리":11649,"##내려":11650,"##모르":11651,"말자":11652,"서초":11653,"되겠네":11654,"어지":11655,"##구니":11656,"##하는거야":11657,"무역":11658,"징징":11659,"해보":11660,"##BC":11661,"인상":11662,"시민단체":11663,"노릇":11664,"##일세":11665,"##총선":11666,"##내라":11667,"어쩌고":11668,"역대급":11669,"##부장관":11670,"국가의":11671,"불구":11672,"##합니까":11673,"불과":11674,"환자":11675,"이미지":11676,"망신":11677,"16":11678,"욕하고":11679,"아닌듯":11680,"욕심":11681,"깡패":11682,"##프레":11683,"##준다고":11684,"진심으로":11685,"##인척":11686,"해명":11687,"##버려":11688,"여자는":11689,"##치지":11690,"##해봐야":11691,"##재인":11692,"안한다":11693,"재인":11694,"##다리":11695,"##보복":11696,"##년도":11697,"계산":11698,"파렴":11699,"중앙일보":11700,"새누리":11701,"찌질":11702,"##비는":11703,"1위":11704,"비핵화":11705,"적화":11706,"바라는":11707,"보지":11708,"대북":11709,"시킨":11710,"어떠":11711,"현금":11712,"생각도":11713,"##시설":11714,"##부를":11715,"없어져야":11716,"자료":11717,"김학의":11718,"##없는데":11719,"독립운동":11720,"행태":11721,"하다가":11722,"어디로":11723,"##만은":11724,"덕분에":11725,"뒤에":11726,"못하면":11727,"끌려":11728,"처음부터":11729,"끝나":11730,"못살":11731,"이새끼":11732,"누구나":11733,"있어라":11734,"서민들":11735,"죄송":11736,"##되니":11737,"##후에":11738,"##아니다":11739,"찍소리":11740,"평가":11741,"##보도":11742,"##다시":11743,"빕니다":11744,"##당의":11745,"##도소":11746,"같음":11747,"조센":11748,"##지니":11749,"30년":11750,"니네가":11751,"##들이랑":11752,"##id":11753,"##구로":11754,"##십시요":11755,"맘에":11756,"그딴":11757,"성과":11758,"있던":11759,"능력이":11760,"##크로":11761,"##걸고":11762,"동남아":11763,"뒤에서":11764,"##통이":11765,"독일":11766,"##하지말":11767,"업무":11768,"위기":11769,"늘어나":11770,"북한을":11771,"나아":11772,"놀러":11773,"시국에":11774,"기사에":11775,"부모님":11776,"##가다":11777,"할일":11778,"안타깝다":11779,"##취급":11780,"##인사":11781,"앞뒤":11782,"왕따":11783,"##영웅":11784,"##잔아":11785,"같냐":11786,"##세로":11787,"네가":11788,"##인건":11789,"오른":11790,"찌라시":11791,"새키":11792,"건설":11793,"테러":11794,"##호사":11795,"##분열":11796,"하네요":11797,"##마스크":11798,"짜파구리":11799,"##못하는":11800,"##틀딱":11801,"제재":11802,"검찰을":11803,"관종":11804,"5천":11805,"같네요":11806,"뿌리":11807,"##라라":11808,"성매매":11809,"##수호":11810,"하겠지":11811,"##는거고":11812,"현실을":11813,"동양":11814,"거래":11815,"언제부터":11816,"압박":11817,"##만의":11818,"모든게":11819,"태어나":11820,"어케":11821,"역사를":11822,"##혀서":11823,"세금이":11824,"##하하":11825,"대우":11826,"좋은데":11827,"나서서":11828,"청와대가":11829,"##가나":11830,"모르냐":11831,"##감을":11832,"##미가":11833,"##하던데":11834,"죽어라":11835,"##수석":11836,"전라":11837,"경영":11838,"##아는":11839,"또는":11840,"소신":11841,"지들은":11842,"그러고":11843,"ㄹㅇ":11844,"내세":11845,"##수있는":11846,"꼼수":11847,"##들이지":11848,"##스가":11849,"동참":11850,"않습니다":11851,"한겨":11852,"##마저":11853,"박사":11854,"퍼트":11855,"##으라":11856,"조폭":11857,"그들이":11858,"실업":11859,"도시":11860,"##났네":11861,"정의를":11862,"늙은":11863,"시스템":11864,"카드":11865,"##on":11866,"선거법":11867,"##겠습니까":11868,"안정":11869,"그러냐":11870,"조국의":11871,"##인으로":11872,"지들끼리":11873,"청소":11874,"##사업":11875,"국가에서":11876,"이루어":11877,"영어":11878,"##가게":11879,"역겨운":11880,"작작":11881,"이런걸":11882,"##저씨":11883,"인데":11884,"##하자고":11885,"보낸":11886,"##비로":11887,"##했습니다":11888,"혼란":11889,"##된다고":11890,"##거같":11891,"##권이":11892,"추잡":11893,"##러움":11894,"수고":11895,"홍보":11896,"##으러":11897,"배운":11898,"정책을":11899,"빨간":11900,"##피해":11901,"##았나":11902,"##0년대":11903,"강화":11904,"가해자":11905,"자국":11906,"##하는거냐":11907,"코로나로":11908,"경기도":11909,"사실이":11910,"##데로":11911,"피의":11912,"드라마":11913,"기업이":11914,"문재인대통령":11915,"##싫다":11916,"개같은":11917,"안하냐":11918,"입학":11919,"모아":11920,"##거라고":11921,"##충들":11922,"##처먹":11923,"나오지":11924,"##만하고":11925,"이사":11926,"##나와":11927,"포장":11928,"정부를":11929,"수사를":11930,"논란":11931,"집행":11932,"천안함":11933,"감성팔이":11934,"여경":11935,"##랜드":11936,"일이다":11937,"##적폐":11938,"##닫고":11939,"30대":11940,"강요":11941,"둘이":11942,"반대로":11943,"##화자":11944,"다만":11945,"후쿠":11946,"##리는게":11947,"했냐":11948,"심상":11949,"##한거다":11950,"죽어도":11951,"나랏":11952,"거짓말을":11953,"##보소":11954,"폐렴":11955,"갈수록":11956,"이길":11957,"13":11958,"보니까":11959,"갈아":11960,"대충":11961,"할수있":11962,"베네수":11963,"시켜라":11964,"2차":11965,"절반":11966,"진단":11967,"상식적으로":11968,"않아":11969,"족속":11970,"좌우":11971,"환장":11972,"과학":11973,"대가리가":11974,"의도":11975,"애가":11976,"이재용":11977,"아무런":11978,"공직":11979,"##보이":11980,"##지기":11981,"아래":11982,"##가면서":11983,"##계를":11984,"##영상":11985,"너희들이":11986,"아니지만":11987,"##센터":11988,"##식을":11989,"##하겠네":11990,"장자연":11991,"몰고":11992,"허구":11993,"출마":11994,"파업":11995,"할배":11996,"집중":11997,"##네ㅋㅋ":11998,"발광":11999,"##마리":12000,"이웃":12001,"##되게":12002,"비용":12003,"니는":12004,"이하":12005,"태어":12006,"##저히":12007,"힘들다":12008,"1인":12009,"것으로":12010,"건데":12011,"당신들이":12012,"머저리":12013,"검찰의":12014,"수천":12015,"##an":12016,"##자금":12017,"했지":12018,"합법":12019,"##맞고":12020,"##당과":12021,"실력":12022,"이를":12023,"유승민":12024,"장학금":12025,"헬조선":12026,"##벌이":12027,"소속":12028,"그들의":12029,"요즘은":12030,"필요하다":12031,"뭐지":12032,"자유대한민국":12033,"공산화":12034,"상처":12035,"##하더라":12036,"독도":12037,"반대하는":12038,"황교안이":12039,"명분":12040,"인간아":12041,"여태":12042,"##관리":12043,"##곳이":12044,"살아있는":12045,"##집에":12046,"야이":12047,"지역구":12048,"얻어":12049,"바쁘":12050,"댓글이":12051,"댓글조작":12052,"같네":12053,"##쳐먹고":12054,"미국과":12055,"표창장":12056,"짜고":12057,"##좀해라":12058,"한사람":12059,"##안되는":12060,"##하라는":12061,"##국민이":12062,"뭐하나":12063,"##점을":12064,"##기다":12065,"대법":12066,"망가":12067,"들어오":12068,"##대상":12069,"10억":12070,"조금만":12071,"그정도":12072,"##을것":12073,"개인의":12074,"##했지만":12075,"##청장":12076,"민정":12077,"필요가":12078,"대형":12079,"##르기":12080,"일본에서":12081,"##말에":12082,"쏟아":12083,"아는데":12084,"##화자찬":12085,"속보":12086,"기어":12087,"##양반":12088,"##없지":12089,"행정":12090,"##물을":12091,"입맛":12092,"시행":12093,"##할지":12094,"##하려면":12095,"##북한":12096,"사람들도":12097,"이런식으로":12098,"##님의":12099,"##주의자":12100,"한가":12101,"##해주는":12102,"안되지":12103,"##겠군":12104,"하겠다":12105,"##정권의":12106,"바퀴":12107,"##답다":12108,"음주운전":12109,"##만하면":12110,"된다는":12111,"의문":12112,"##주민":12113,"시켰":12114,"##스타":12115,"전자":12116,"##모습":12117,"##국은":12118,"##못하고":12119,"그렇다":12120,"##버린":12121,"내일":12122,"##봅니다":12123,"총선때":12124,"알았다":12125,"##회에":12126,"진영":12127,"쓰면":12128,"##한테도":12129,"집구석":12130,"##사에":12131,"유학":12132,"##나니":12133,"앞장":12134,"나가서":12135,"남이":12136,"경고":12137,"존중":12138,"##대강":12139,"소중":12140,"##다른":12141,"##시작":12142,"##하노":12143,"고향":12144,"뭐든":12145,"알아라":12146,"일관":12147,"폐쇄":12148,"예전에":12149,"##을거다":12150,"##기술":12151,"##집니다":12152,"가족이":12153,"##쳐야":12154,"게다가":12155,"죽인":12156,"그러면서":12157,"대상":12158,"사라지":12159,"##고생":12160,"##소년단":12161,"사람의":12162,"인지":12163,"교도소":12164,"후쿠시마":12165,"추진":12166,"자화자찬":12167,"##십시오":12168,"분명히":12169,"싸이":12170,"악의":12171,"##리는거":12172,"정도면":12173,"어린이":12174,"##행위":12175,"세대":12176,"##치네":12177,"##새기":12178,"밝혀라":12179,"거품":12180,"했는지":12181,"##사랑":12182,"좌익":12183,"##였네":12184,"싫은":12185,"##지않고":12186,"시키는":12187,"도와주":12188,"세금은":12189,"언론에":12190,"마련":12191,"증거가":12192,"##빠리":12193,"##진이":12194,"않을까":12195,"저걸":12196,"되어야":12197,"##이스":12198,"나머지":12199,"중국을":12200,"협조":12201,"봉쇄":12202,"##분들이":12203,"말인가":12204,"개무시":12205,"##마음":12206,"안되면":12207,"기존":12208,"##거는":12209,"##병원":12210,"말이야":12211,"##적이다":12212,"##지영":12213,"지는":12214,"##답니다":12215,"몇십":12216,"코로나19":12217,"제1":12218,"최근":12219,"싫으면":12220,"##한걸":12221,"말라고":12222,"행동을":12223,"매번":12224,"모여":12225,"마땅":12226,"수시":12227,"올린":12228,"##드만":12229,"올리고":12230,"댓글을":12231,"##하는거다":12232,"분들이":12233,"양심이":12234,"위로":12235,"구린":12236,"문어":12237,"##리니":12238,"##줄이":12239,"끝이":12240,"퍼주":12241,"##친구":12242,"##ㅅㄲ":12243,"##었는지":12244,"##없다고":12245,"##둬라":12246,"99":12247,"찍은":12248,"유투":12249,"애쓴다":12250,"오만":12251,"이순신":12252,"울산":12253,"##물에":12254,"결국은":12255,"걸레":12256,"더듬":12257,"##보호":12258,"##추고":12259,"차려라":12260,"##리즘":12261,"근로":12262,"##바뀌":12263,"길거리":12264,"어딜":12265,"##너무":12266,"##있다고":12267,"##다는데":12268,"장제":12269,"##이래":12270,"동성애":12271,"들은":12272,"##법으로":12273,"##색히":12274,"##그런":12275,"개그":12276,"##야말로":12277,"##제한":12278,"대비":12279,"다름":12280,"위선자":12281,"어마":12282,"날이":12283,"더럽게":12284,"##서도":12285,"순수":12286,"시체":12287,"여야":12288,"##25":12289,"##걱정":12290,"좌파들은":12291,"방탄소년단":12292,"##라며":12293,"##없어서":12294,"먼지":12295,"스타":12296,"댓글들":12297,"주변에":12298,"간신":12299,"결과가":12300,"클라스":12301,"##자유":12302,"누구를":12303,"이시국에":12304,"정수":12305,"줘야":12306,"좋았":12307,"아부":12308,"적자":12309,"걸려":12310,"가까":12311,"##미디":12312,"살면":12313,"똥꼬":12314,"끔찍":12315,"##해야할":12316,"정권에":12317,"심각한":12318,"이단":12319,"수꼴":12320,"##내가":12321,"##성에":12322,"##시네":12323,"베네수엘라":12324,"##알고":12325,"##산업":12326,"저지른":12327,"나간":12328,"##명은":12329,"저정도":12330,"##듣고":12331,"##서서":12332,"좌표":12333,"오지게":12334,"대갈":12335,"요새":12336,"소득주도":12337,"만만":12338,"웃고":12339,"파탄":12340,"이넘":12341,"글을":12342,"나라도":12343,"애기":12344,"파괴":12345,"받아서":12346,"방위":12347,"부부":12348,"지나가는":12349,"자발":12350,"무능력":12351,"##쳐도":12352,"절라도":12353,"검찰총장":12354,"##격을":12355,"지하철":12356,"틀딱들":12357,"하수":12358,"오염":12359,"상승":12360,"##코로나":12361,"말할":12362,"나라로":12363,"모르겠":12364,"##얘기":12365,"차기":12366,"호남":12367,"##인것":12368,"날뛰":12369,"##못한":12370,"단속":12371,"수석":12372,"투명":12373,"건지":12374,"감시":12375,"감옥에":12376,"구역질":12377,"아동":12378,"##시켜서":12379,"##겠지요":12380,"부디":12381,"싶으면":12382,"커녕":12383,"작년":12384,"##십니까":12385,"탈탈":12386,"미래를":12387,"사람들을":12388,"뭐하러":12389,"자식이":12390,"##정의":12391,"다같이":12392,"어서":12393,"착한":12394,"한참":12395,"##살이":12396,"가능한":12397,"닥치고":12398,"##보다도":12399,"원인":12400,"암튼":12401,"정부에":12402,"멍멍":12403,"아들이":12404,"##거품":12405,"수호":12406,"서비스":12407,"갈등":12408,"블랙":12409,"읽어":12410,"큰소리":12411,"목표":12412,"##용으로":12413,"놈은":12414,"실제로":12415,"하던데":12416,"누군가":12417,"##명의":12418,"##이라는게":12419,"안맞":12420,"이탈":12421,"대국민":12422,"##가냐":12423,"마인드":12424,"핵무":12425,"라도":12426,"프랑":12427,"하는짓이":12428,"이쯤되면":12429,"초기":12430,"제한":12431,"그쪽":12432,"말하고":12433,"전파":12434,"할말이":12435,"안그래":12436,"하늘을":12437,"##말도":12438,"##앞에서":12439,"##사로":12440,"조국과":12441,"가관":12442,"박수":12443,"진상":12444,"국민과":12445,"계약":12446,"##갑니다":12447,"보고도":12448,"무엇을":12449,"##긴다":12450,"통합당":12451,"투쟁":12452,"제2의":12453,"나오고":12454,"태극기부대":12455,"하려":12456,"##적은":12457,"##르신":12458,"새끼가":12459,"##다니는":12460,"수령":12461,"망한다":12462,"중국인들":12463,"##인간들":12464,"##파악":12465,"1등":12466,"웃긴다":12467,"넘게":12468,"##상공":12469,"##인걸":12470,"건가":12471,"인천":12472,"##받아야":12473,"상황에":12474,"##대변인":12475,"180":12476,"##능력":12477,"대학생":12478,"어느나라":12479,"폭등":12480,"안할":12481,"영업":12482,"##꼬라지":12483,"돌대가리":12484,"머리에":12485,"말하면":12486,"문천지":12487,"##다녀":12488,"광우":12489,"나라다":12490,"망언":12491,"##지다":12492,"언론사":12493,"면상":12494,"반응":12495,"유명":12496,"살게":12497,"저런게":12498,"않게":12499,"죽는":12500,"맞네":12501,"##차가":12502,"소리가":12503,"여전히":12504,"문제를":12505,"받아라":12506,"주한":12507,"##승리":12508,"인간의":12509,"##로만":12510,"명령":12511,"박멸":12512,"##외교":12513,"나라망":12514,"저것들":12515,"더럽고":12516,"특정":12517,"##여도":12518,"연합":12519,"없네요":12520,"일본도":12521,"사시":12522,"##드라":12523,"실험":12524,"강제로":12525,"##하구":12526,"옹호하는":12527,"그러다":12528,"조선시대":12529,"일상":12530,"당대표":12531,"##회견":12532,"##었을":12533,"##내자":12534,"반복":12535,"협상":12536,"##경북":12537,"파면":12538,"##적을":12539,"##년간":12540,"##사퇴":12541,"걸고":12542,"배상":12543,"##겠는가":12544,"드디어":12545,"미국에서":12546,"기름":12547,"의해":12548,"공포":12549,"김진":12550,"물가":12551,"##무리":12552,"하는거지":12553,"##끼고":12554,"임영웅":12555,"나경원이":12556,"할때":12557,"휴가":12558,"생각좀":12559,"어느정도":12560,"##이라며":12561,"##아주":12562,"##했다면":12563,"상황에서":12564,"##하겠냐":12565,"##줘야지":12566,"못하면서":12567,"##운데":12568,"방향":12569,"색히":12570,"자유를":12571,"신청":12572,"식민지":12573,"모욕":12574,"##나도":12575,"대통령도":12576,"남자들":12577,"항의":12578,"##서를":12579,"##폭탄":12580,"31":12581,"공작":12582,"처단":12583,"해석":12584,"요청":12585,"잔인":12586,"##지말자":12587,"##경욱":12588,"강경":12589,"다이":12590,"중국으로":12591,"떨어진":12592,"##므로":12593,"##하겠다고":12594,"우덜":12595,"##중이":12596,"와이":12597,"그들은":12598,"넘쳐":12599,"돈만":12600,"비열":12601,"해봐":12602,"달라고":12603,"##이란다":12604,"이기적인":12605,"김치":12606,"후진국":12607,"올바른":12608,"댓글에":12609,"잘해":12610,"##구라":12611,"일본인":12612,"##써라":12613,"의식":12614,"##성도":12615,"##있으니":12616,"자제":12617,"말로만":12618,"이나라가":12619,"쓰지":12620,"##어놓고":12621,"##들여":12622,"사무":12623,"어딨":12624,"##리카":12625,"않았다":12626,"좌파는":12627,"##겠구나":12628,"없었다":12629,"사실상":12630,"것이고":12631,"이따위":12632,"끝났":12633,"##전문":12634,"붙어":12635,"노답":12636,"##았냐":12637,"옆에":12638,"저래":12639,"##시가":12640,"##그램":12641,"우리나라도":12642,"박영":12643,"##행동":12644,"인건":12645,"공산국가":12646,"박근혜는":12647,"무서워":12648,"비슷한":12649,"##조치":12650,"KBS":12651,"특수":12652,"어디에":12653,"나만":12654,"분위기":12655,"사망자":12656,"##지도않":12657,"대통령의":12658,"명백":12659,"아닌거":12660,"정유라":12661,"먹고살":12662,"##된거":12663,"보내고":12664,"있었다":12665,"정확히":12666,"상상":12667,"일주":12668,"방문":12669,"##으로써":12670,"##정에":12671,"기레기야":12672,"귀족":12673,"몇명":12674,"당연한거":12675,"억지":12676,"왜냐":12677,"##뿐이다":12678,"타이":12679,"감당":12680,"마녀":12681,"##못해":12682,"##들이야":12683,"잘난":12684,"##으셨":12685,"빠는":12686,"##님을":12687,"조치":12688,"##간이":12689,"미국도":12690,"당한":12691,"밑에":12692,"당사":12693,"막고":12694,"배려":12695,"죄값":12696,"왜이리":12697,"대만":12698,"문재앙과":12699,"나무":12700,"##종석":12701,"말해":12702,"애플":12703,"아시아":12704,"##마자":12705,"##폭망":12706,"##이구만":12707,"##종교":12708,"모습을":12709,"것처럼":12710,"북조선":12711,"##번째":12712,"##공감":12713,"그놈의":12714,"도저히":12715,"공동":12716,"살면서":12717,"##얼굴":12718,"##마이":12719,"민경욱":12720,"자가격리":12721,"있었는데":12722,"안들어":12723,"적이":12724,"##바이러스":12725,"이것들은":12726,"##조국":12727,"코미디":12728,"##먼저":12729,"대다수":12730,"강력한":12731,"이익을":12732,"침략":12733,"이러다":12734,"먹여":12735,"이나라는":12736,"##해야함":12737,"아닙니까":12738,"든다":12739,"해먹":12740,"##자에":12741,"##제는":12742,"##총리":12743,"##어진":12744,"민낯":12745,"##내용":12746,"여기에":12747,"상황을":12748,"신경쓰":12749,"무료":12750,"기레기들":12751,"##중국":12752,"자극":12753,"언제나":12754,"기초":12755,"##겨라":12756,"부들부들":12757,"편가":12758,"할것":12759,"더불당":12760,"부인":12761,"이런건":12762,"##봤다":12763,"인기":12764,"한데":12765,"입시":12766,"이유를":12767,"유전":12768,"이용해서":12769,"떨어지":12770,"들어서":12771,"이와":12772,"2주":12773,"##률이":12774,"##을려고":12775,"##넘이":12776,"##너스":12777,"학생들":12778,"살인마":12779,"보장":12780,"자칭":12781,"##버려라":12782,"말에":12783,"개정은":12784,"놀랍":12785,"아픈":12786,"걸리면":12787,"몰래":12788,"정치는":12789,"벗어나":12790,"##법은":12791,"전정권":12792,"중간":12793,"모습이":12794,"##원들":12795,"##긋지":12796,"강한":12797,"한국당은":12798,"이유로":12799,"좌파가":12800,"##할꺼":12801,"##수당":12802,"역겹":12803,"맞춰":12804,"##왔다":12805,"들여":12806,"열면":12807,"이럴때":12808,"##았다고":12809,"없애고":12810,"태양광":12811,"견찰":12812,"중립":12813,"없지만":12814,"##등등":12815,"않음":12816,"##겟다":12817,"프랑스":12818,"소송":12819,"어쩜":12820,"선수":12821,"##사도":12822,"##하자는":12823,"어떨":12824,"##였음":12825,"사리":12826,"정부와":12827,"코로나가":12828,"동일":12829,"법적":12830,"##라는게":12831,"국민들도":12832,"애를":12833,"토론":12834,"##이들이":12835,"##당시":12836,"공식":12837,"##올라":12838,"##대학":12839,"입을":12840,"입고":12841,"영혼":12842,"받으면":12843,"수업":12844,"##어죽":12845,"얼굴에":12846,"공기":12847,"##다니엘":12848,"##원봉":12849,"고맙다":12850,"24":12851,"유가족":12852,"소방":12853,"##드폰":12854,"코스프레":12855,"##몰이":12856,"##행을":12857,"이모양":12858,"객관":12859,"매달":12860,"낭비":12861,"##할텐데":12862,"##걸까":12863,"후원":12864,"조센징":12865,"새벽":12866,"아닥":12867,"전수":12868,"##새끼가":12869,"서서":12870,"이끌":12871,"##는거죠":12872,"이꼴":12873,"##놈아":12874,"개선":12875,"패스트":12876,"발목":12877,"딸이":12878,"##만원씩":12879,"##ns":12880,"무서워서":12881,"탈출":12882,"##자에게":12883,"식당":12884,"뒤로":12885,"##일로":12886,"##마나":12887,"휴대":12888,"지지자들":12889,"##내면":12890,"##렸는데":12891,"범법":12892,"##애들은":12893,"문빠들":12894,"##구가":12895,"보수는":12896,"한국당이":12897,"협력":12898,"지원금":12899,"##잖어":12900,"웃기네":12901,"비서":12902,"##개입":12903,"##하느라":12904,"시켜야":12905,"##냄새":12906,"이라는":12907,"화웨":12908,"일본한테":12909,"사면":12910,"양보":12911,"##중대":12912,"##리며":12913,"없구나":12914,"오는":12915,"##지마세요":12916,"조민":12917,"때가":12918,"##이런":12919,"안들":12920,"소리하고":12921,"##겁니까":12922,"대답":12923,"정신좀":12924,"가려":12925,"정체":12926,"##국에서":12927,"동생":12928,"##적도":12929,"어르신":12930,"##MF":12931,"##하는것도":12932,"한걸레":12933,"재앙이가":12934,"보여주는":12935,"##시위":12936,"##사진":12937,"법원":12938,"제조":12939,"##질러":12940,"##자다":12941,"자기들이":12942,"그에":12943,"편하게":12944,"##순간":12945,"##달창":12946,"두둔":12947,"김진태":12948,"사서":12949,"질질":12950,"OOO아":12951,"김종":12952,"사유":12953,"##이란게":12954,"비호":12955,"치는":12956,"그돈":12957,"하루빨리":12958,"끝날":12959,"선관":12960,"##산다":12961,"사는게":12962,"##수저":12963,"##린다고":12964,"바다":12965,"##든다":12966,"##우리":12967,"##까지는":12968,"이언주":12969,"공지영":12970,"웃음":12971,"정치권":12972,"가족들":12973,"부끄럽다":12974,"##질은":12975,"외면":12976,"외치는":12977,"##아나":12978,"위장":12979,"연결":12980,"대구경북":12981,"환영":12982,"차지":12983,"##기네":12984,"답변":12985,"##비용":12986,"##오지":12987,"기자회견":12988,"##방이":12989,"##의로":12990,"##일듯":12991,"앞으로도":12992,"##년전":12993,"무릎":12994,"인가":12995,"훈련":12996,"살지":12997,"##2시간":12998,"일으키":12999,"강하게":13000,"제거":13001,"얼른":13002,"##감염":13003,"금융":13004,"무엇이":13005,"주둥아리":13006,"시기":13007,"왔다":13008,"한글":13009,"바퀴벌레":13010,"바뀌면":13011,"맞는데":13012,"비롯":13013,"중단":13014,"##노동":13015,"##모가":13016,"잘못이":13017,"조건":13018,"같으니":13019,"어짜":13020,"##운영":13021,"##라지가":13022,"국회의원이":13023,"할거":13024,"안된다고":13025,"고인의":13026,"증가":13027,"못해서":13028,"말아야":13029,"의전":13030,"권리":13031,"000":13032,"근혜":13033,"##가는구나":13034,"목포":13035,"현정권":13036,"종식":13037,"##놈들아":13038,"슬프":13039,"권력에":13040,"기자야":13041,"##놔라":13042,"##였던":13043,"인식":13044,"키워":13045,"있는가":13046,"말아라":13047,"##하잖아":13048,"인정하고":13049,"사회에":13050,"지진":13051,"##ㅈㄹ":13052,"산불":13053,"떨어지는":13054,"##투기":13055,"대가리에":13056,"이지경":13057,"##동맹":13058,"한다면":13059,"자리에":13060,"빠진":13061,"말장난":13062,"##당하는":13063,"혁신":13064,"정치하는":13065,"##회담":13066,"##자들의":13067,"맞게":13068,"##스터":13069,"업체":13070,"했나":13071,"롯데":13072,"##하도록":13073,"북에":13074,"비행기":13075,"강다니엘":13076,"주한미":13077,"마트":13078,"보냈":13079,"피눈":13080,"##들로":13081,"정직":13082,"##xx":13083,"##살인":13084,"죽고":13085,"좌파들이":13086,"##드려":13087,"##의도":13088,"마구":13089,"양심도":13090,"##을지":13091,"견제":13092,"불만":13093,"##하겠다는":13094,"비겁":13095,"차이":13096,"##한거야":13097,"##문화":13098,"반일감정":13099,"##다음":13100,"매년":13101,"못받":13102,"했네":13103,"걸어":13104,"똘마니":13105,"믿어":13106,"가증":13107,"시대가":13108,"##카페":13109,"태풍":13110,"##해야합니다":13111,"차고":13112,"개돼지들이":13113,"아무나":13114,"나누":13115,"긴급":13116,"한쪽":13117,"불륜":13118,"공정한":13119,"식으로":13120,"잘했다":13121,"##실히":13122,"##기위해":13123,"인류":13124,"질병":13125,"아이폰":13126,"이것들":13127,"##성공":13128,"법대로":13129,"안믿":13130,"##걸이":13131,"제대로된":13132,"몰라서":13133,"아우":13134,"하도":13135,"되었다":13136,"법은":13137,"소통":13138,"역적":13139,"##구속":13140,"한겨레":13141,"경호":13142,"연락":13143,"있네요":13144,"싶어서":13145,"##er":13146,"##여론":13147,"민주당과":13148,"치우":13149,"##배는":13150,"##넣고":13151,"마음대로":13152,"어떡":13153,"하지않":13154,"구나":13155,"##정하고":13156,"잘한":13157,"신천지는":13158,"김성":13159,"##사이":13160,"##인생":13161,"투기꾼":13162,"원내":13163,"일자":13164,"편의":13165,"##징역":13166,"##자와":13167,"##나지":13168,"박탈":13169,"글로":13170,"살자":13171,"지경":13172,"멀쩡한":13173,"해외여행":13174,"일제시대":13175,"기업들":13176,"발악을":13177,"말대로":13178,"수익":13179,"##코패스":13180,"##거래":13181,"##것같다":13182,"줘라":13183,"##힌다":13184,"##인데도":13185,"그러지":13186,"저희":13187,"미성":13188,"시간에":13189,"에효":13190,"##점에":13191,"##사냥":13192,"알았는데":13193,"퍼뜨":13194,"모르겠네":13195,"##장님":13196,"탄압":13197,"##였어":13198,"아이들이":13199,"##주를":13200,"새끼들이":13201,"극혐":13202,"구입":13203,"민주당만":13204,"##👍👍":13205,"##노릇":13206,"##리오":13207,"##선언":13208,"어쩌다":13209,"들어간":13210,"아니네":13211,"##드러":13212,"아름":13213,"##할래":13214,"그런가":13215,"좋게":13216,"스마트":13217,"역사에":13218,"##알아":13219,"국회에서":13220,"##아버지":13221,"먹은":13222,"##그냥":13223,"##이지요":13224,"주도":13225,"엄벌":13226,"다죽":13227,"학원":13228,"IMF":13229,"비하":13230,"미친거":13231,"할려고":13232,"일본여행":13233,"답답하다":13234,"##었으니":13235,"이나":13236,"##지랄":13237,"장관이":13238,"내란":13239,"몇번":13240,"##끼는":13241,"배웠":13242,"거기다":13243,"어머니":13244,"지배":13245,"성인":13246,"##태우":13247,"제공":13248,"수작":13249,"모여서":13250,"석방":13251,"어처":13252,"##나다":13253,"작업":13254,"광신도":13255,"시대에":13256,"생색":13257,"##모두":13258,"안받":13259,"맞다고":13260,"정치가":13261,"한표":13262,"좀더":13263,"모지리":13264,"막아야":13265,"부대":13266,"청와대에":13267,"아쉽":13268,"다는":13269,"차이나":13270,"정신을":13271,"뭐고":13272,"##긋지긋":13273,"모든걸":13274,"##차는":13275,"너희들은":13276,"자진":13277,"안먹":13278,"진짜로":13279,"금방":13280,"##아니면":13281,"청와대는":13282,"단지":13283,"꼴보기":13284,"정의가":13285,"마스크를":13286,"##버렸":13287,"##량이":13288,"평균":13289,"핸드폰":13290,"##거부":13291,"##겠구만":13292,"들먹":13293,"훠훠":13294,"더러":13295,"법안":13296,"수술":13297,"사회가":13298,"잡아서":13299,"중심":13300,"얘는":13301,"없애라":13302,"간단":13303,"##하고있네":13304,"##지르":13305,"댓글부대":13306,"비정상":13307,"아녀":13308,"##여러":13309,"##치게":13310,"권한":13311,"##무슨":13312,"천지":13313,"각오":13314,"발사":13315,"남자는":13316,"학부모":13317,"##모로":13318,"##평등":13319,"쳐다":13320,"##단을":13321,"물려":13322,"##에게도":13323,"웃기고":13324,"##같네":13325,"##불가":13326,"기회에":13327,"더더":13328,"제시":13329,"썩을":13330,"분리":13331,"모르면":13332,"투입":13333,"냄새가":13334,"시도":13335,"된장":13336,"느낀":13337,"##최고":13338,"할머니들":13339,"누가봐도":13340,"똑같다":13341,"커피":13342,"능력도":13343,"꼬리":13344,"##번에":13345,"그자리":13346,"백수":13347,"##자들을":13348,"휘둘":13349,"##해준":13350,"##점은":13351,"검찰에":13352,"엉뚱":13353,"##부지":13354,"##시네요":13355,"여기가":13356,"세워":13357,"##지오":13358,"대통령으로":13359,"보내라":13360,"##인멸":13361,"문어벙":13362,"##엄마":13363,"##하고싶":13364,"재밌":13365,"##만해도":13366,"빨갱이가":13367,"##기야":13368,"##한거냐":13369,"들아":13370,"깨끗한":13371,"어짜피":13372,"허허":13373,"다를게":13374,"없는거":13375,"##펀드":13376,"서초동":13377,"##스러":13378,"기자님":13379,"우롱":13380,"여자들이":13381,"##시급":13382,"정의연":13383,"개독":13384,"##ㄷㄷ":13385,"리더":13386,"50대":13387,"이완":13388,"##메라":13389,"사례":13390,"안간다":13391,"전범":13392,"침묵":13393,"머가":13394,"죽을때":13395,"##꺼야":13396,"온통":13397,"지긋지긋":13398,"##정한":13399,"##중인":13400,"어처구니":13401,"베댓":13402,"##주냐":13403,"비하면":13404,"##자만":13405,"개검":13406,"##수준이":13407,"며칠":13408,"나오네":13409,"##경영":13410,"침몰":13411,"##수밖에":13412,"차명":13413,"싫어하는":13414,"필리":13415,"##리면서":13416,"빼앗":13417,"짓이":13418,"##했어요":13419,"어리석은":13420,"자세":13421,"##40":13422,"마음에":13423,"살아남":13424,"특권":13425,"많음":13426,"필요없다":13427,"될까":13428,"문닫":13429,"슬슬":13430,"제도":13431,"정확한":13432,"보건":13433,"영국":13434,"##우파":13435,"미래통합":13436,"감빵":13437,"##으려는":13438,"아니잖아":13439,"##평화":13440,"재인이":13441,"##하구나":13442,"얘네":13443,"똑같네":13444,"공안":13445,"국민청원":13446,"그림":13447,"학살":13448,"낙태":13449,"행위":13450,"전면":13451,"##었습니다":13452,"안되나":13453,"인간을":13454,"이대로":13455,"가입":13456,"##지않은":13457,"수도권":13458,"위대한":13459,"##안보":13460,"문재인정부":13461,"##폭력":13462,"이간":13463,"##개를":13464,"##금이":13465,"##대기":13466,"안보고":13467,"말이냐":13468,"정말로":13469,"뒤통수":13470,"##였고":13471,"법치":13472,"폭탄":13473,"한녀":13474,"##라구":13475,"지역감정":13476,"다스":13477,"##곳에서":13478,"확진자가":13479,"전국민이":13480,"야당이":13481,"해골":13482,"멀리":13483,"주범":13484,"##판사":13485,"##년을":13486,"##테고":13487,"##아프":13488,"으이":13489,"출근":13490,"김정숙":13491,"좋아서":13492,"ㅁㅊ":13493,"그니까":13494,"막을":13495,"##문이":13496,"우리나라에서":13497,"안해도":13498,"수구꼴통":13499,"고대":13500,"죽이는":13501,"우리를":13502,"##하는가":13503,"아저씨":13504,"내려와라":13505,"##까리":13506,"문죄인이":13507,"나라꼴이":13508,"넘어가":13509,"소상공":13510,"못믿":13511,"열등":13512,"##강간":13513,"조상":13514,"자신을":13515,"적은":13516,"##어마":13517,"부칸":13518,"##차를":13519,"공짜로":13520,"##졌으면":13521,"자신들의":13522,"##같으면":13523,"##신고":13524,"##으로만":13525,"##버려야":13526,"빨갱이들이":13527,"잘못한":13528,"싸그리":13529,"##년들":13530,"좋겠습니다":13531,"##는거네":13532,"수장":13533,"극복":13534,"증거인멸":13535,"일방":13536,"없어도":13537,"이것들이":13538,"표를":13539,"아마도":13540,"##공화국":13541,"충격":13542,"TV":13543,"낮은":13544,"자들이":13545,"주택":13546,"정권잡":13547,"이승만":13548,"확실한":13549,"보다는":13550,"##막고":13551,"시발":13552,"##서가":13553,"##나라도":13554,"문재인도":13555,"강행":13556,"삶을":13557,"##메디":13558,"더불어민주당":13559,"OOO들아":13560,"끝나면":13561,"방어":13562,"##위해서":13563,"아직까지":13564,"##시키면":13565,"고만":13566,"##점에서":13567,"휴대폰":13568,"##거리고":13569,"아이를":13570,"저능아":13571,"좋고":13572,"##할거다":13573,"취재":13574,"##발언":13575,"확실하게":13576,"있었던":13577,"##항공":13578,"##맘대로":13579,"너희가":13580,"##세끼":13581,"법으로":13582,"여기는":13583,"땜에":13584,"##비도":13585,"아까":13586,"아쉬":13587,"할듯":13588,"자기네":13589,"무능하고":13590,"내리":13591,"없는게":13592,"##안되":13593,"##분들은":13594,"낫지":13595,"안내":13596,"앉아서":13597,"##수있다":13598,"언론은":13599,"아프리카":13600,"공유":13601,"##소가":13602,"사모":13603,"좋겠네요":13604,"것인가":13605,"쓰러":13606,"사세요":13607,"역시나":13608,"진실이":13609,"기자들":13610,"새끼야":13611,"뽑았":13612,"애미":13613,"고스":13614,"박영선":13615,"올리는":13616,"안한":13617,"##소나":13618,"##집권":13619,"집을":13620,"전원":13621,"일삼":13622,"현장":13623,"##개념":13624,"까고":13625,"##비에":13626,"좋지":13627,"어용":13628,"##지않나":13629,"끝난":13630,"눈치보":13631,"인물이":13632,"##랍시고":13633,"잘도":13634,"악플러":13635,"본인의":13636,"끼리끼리":13637,"했으니":13638,"나면":13639,"매출":13640,"대접":13641,"터진":13642,"##겟지":13643,"거덜":13644,"아니라는":13645,"도데":13646,"##공무원":13647,"미투":13648,"무소":13649,"##갈등":13650,"##는것도":13651,"공무원들":13652,"가능성이":13653,"##동원":13654,"어디까지":13655,"잘라":13656,"곳이":13657,"구걸":13658,"훌륭한":13659,"이자":13660,"한건":13661,"맞습니다":13662,"##친일":13663,"##트랙":13664,"##기간":13665,"걸로":13666,"쪽발이":13667,"돌아가는":13668,"##입고":13669,"결과는":13670,"##하기도":13671,"도입":13672,"주한미군":13673,"##찍고":13674,"누구는":13675,"무기징역":13676,"##상에서":13677,"##주니":13678,"LG":13679,"따지":13680,"아니니":13681,"인턴":13682,"지내":13683,"손잡고":13684,"##충이":13685,"##부러":13686,"인간들아":13687,"503":13688,"있잖아":13689,"안되는데":13690,"배급":13691,"했을":13692,"제출":13693,"주댕":13694,"정치인이":13695,"김영":13696,"##이게":13697,"##민들":13698,"넘는":13699,"##린거":13700,"미성년":13701,"##세기":13702,"성적":13703,"교체":13704,"부활":13705,"싸가지":13706,"##이익":13707,"모르겠지만":13708,"유사":13709,"##셔요":13710,"죽으면":13711,"인종":13712,"이러면":13713,"목숨을":13714,"나름":13715,"비웃":13716,"회복":13717,"어쩌라고":13718,"갈라":13719,"이런기사":13720,"뒤지":13721,"##속에서":13722,"##맙시다":13723,"불가":13724,"##사상":13725,"시비":13726,"피해자가":13727,"본인은":13728,"조국딸":13729,"꼴이":13730,"##통에":13731,"평범":13732,"##분은":13733,"다음에":13734,"이정부":13735,"댓글알바":13736,"방구석":13737,"쳐먹고":13738,"##고있는데":13739,"너네가":13740,"행동이":13741,"민좃":13742,"구경":13743,"일개":13744,"가까운":13745,"보고싶":13746,"차량":13747,"##보여":13748,"장제원":13749,"해줄":13750,"유죄":13751,"##하고도":13752,"새로":13753,"징글":13754,"##or":13755,"지도자":13756,"깨어":13757,"조사해서":13758,"모르지":13759,"주지":13760,"##할줄":13761,"생겨":13762,"싸게":13763,"받지":13764,"청와대에서":13765,"##주자":13766,"##졌는데":13767,"##성과":13768,"어쩌구":13769,"철저하게":13770,"의미가":13771,"심상정":13772,"##tbc":13773,"앞잡이":13774,"밥먹":13775,"상위":13776,"만들어야":13777,"대안":13778,"먹어":13779,"##이후":13780,"금액":13781,"##왔는데":13782,"사악한":13783,"추악한":13784,"현실은":13785,"##토록":13786,"4대강":13787,"##었다는":13788,"당당하게":13789,"이제야":13790,"있겠지":13791,"##국당":13792,"트집":13793,"해외로":13794,"##조를":13795,"##영화":13796,"지속":13797,"청소년":13798,"##하겠습니다":13799,"##신을":13800,"##아먹는":13801,"도발":13802,"했고":13803,"수단":13804,"천박":13805,"##페미":13806,"##이요":13807,"##상관":13808,"진작에":13809,"##간히":13810,"정치검찰":13811,"망쳐":13812,"##조원":13813,"잘했다고":13814,"더블":13815,"졸업":13816,"국가에":13817,"마녀사냥":13818,"쓸데없는":13819,"한방":13820,"다양":13821,"##하실":13822,"좌파들의":13823,"똥개":13824,"대깨문들은":13825,"않나요":13826,"##들이고":13827,"오면":13828,"만들어라":13829,"맞음":13830,"매장":13831,"##사무":13832,"##량한":13833,"##지원금":13834,"소릴":13835,"엄중":13836,"당신도":13837,"있다가":13838,"있도록":13839,"##보내고":13840,"##노무":13841,"##봅시다":13842,"##면피":13843,"정도는":13844,"##조직":13845,"주장하는":13846,"해요":13847,"두렵":13848,"##속으로":13849,"하나만":13850,"내려오":13851,"대권":13852,"연애":13853,"좋으면":13854,"사라져야":13855,"공익":13856,"하다니":13857,"##터리":13858,"##기준":13859,"아베는":13860,"##바꾸":13861,"공항":13862,"2019":13863,"안사":13864,"이정권":13865,"sns":13866,"범죄를":13867,"망하는":13868,"알겠다":13869,"원자":13870,"날려":13871,"위험한":13872,"조카":13873,"했다는":13874,"##처먹고":13875,"북한에서":13876,"도데체":13877,"##내지":13878,"##문서":13879,"##구려":13880,"싫어서":13881,"##연히":13882,"한국인이":13883,"##사람도":13884,"당하는":13885,"##거든요":13886,"민정수석":13887,"부품":13888,"상속":13889,"##주로":13890,"망치":13891,"##양이":13892,"##치료":13893,"기획":13894,"억지로":13895,"##우지":13896,"국가와":13897,"대가":13898,"덮어":13899,"돈주고":13900,"보게":13901,"##꾸로":13902,"나오냐":13903,"아니라면":13904,"명심":13905,"마스크도":13906,"말이지":13907,"##질에":13908,"만원":13909,"허용":13910,"##혼자":13911,"감동":13912,"##적이지":13913,"##같아":13914,"##해진":13915,"부탁드립니다":13916,"삭제":13917,"##살아":13918,"방법이":13919,"어마어마":13920,"가야지":13921,"써야":13922,"작전":13923,"부끄러운줄":13924,"박지원":13925,"울나라":13926,"##파탄":13927,"조금이라도":13928,"하락":13929,"이땅":13930,"마이너스":13931,"완벽":13932,"파헤":13933,"##였나":13934,"사람에게":13935,"##국회":13936,"##스럽고":13937,"박원숭":13938,"##력으로":13939,"좌파의":13940,"못하냐":13941,"##고기":13942,"625":13943,"##86":13944,"우리나라를":13945,"까는":13946,"고문":13947,"뻔히":13948,"##났는데":13949,"수상":13950,"주작":13951,"정신승리":13952,"하든":13953,"##문재인":13954,"100만원":13955,"동조":13956,"우방":13957,"라면":13958,"임대료":13959,"고유정":13960,"##인권":13961,"전세계가":13962,"실천":13963,"##께요":13964,"예의":13965,"병역":13966,"조사해라":13967,"오랜":13968,"##인에":13969,"##2년":13970,"##갖고":13971,"쩝쩝이":13972,"동영상":13973,"못난":13974,"음모":13975,"기다려":13976,"##떨어진":13977,"눈깔":13978,"숟가락":13979,"문통이":13980,"무고":13981,"돈에":13982,"해대":13983,"##15":13984,"읽고":13985,"구멍":13986,"대로":13987,"잡혀":13988,"##어디":13989,"##추어":13990,"유투브":13991,"코메디":13992,"##없으니":13993,"종북좌파":13994,"마냥":13995,"되니":13996,"사냐":13997,"슈퍼":13998,"##생겼":13999,"##절한":14000,"걸러":14001,"남조선":14002,"그때는":14003,"갑니다":14004,"찌그러":14005,"##준비":14006,"나빠":14007,"살길":14008,"##었지만":14009,"걸려서":14010,"못함":14011,"##되었다":14012,"##100":14013,"##것네":14014,"안하":14015,"##근성":14016,"본인들":14017,"##목사":14018,"##환자":14019,"##게이트":14020,"대해서는":14021,"다해":14022,"##자료":14023,"기각":14024,"체포":14025,"찢어":14026,"일본제품":14027,"퍼주고":14028,"##서에":14029,"제정신이":14030,"월세":14031,"입이":14032,"신분":14033,"걸렸":14034,"##징글":14035,"파렴치한":14036,"위원":14037,"##사항":14038,"##들어서":14039,"##돈이":14040,"그의":14041,"##플레이":14042,"##기와":14043,"설득":14044,"기가막":14045,"하나요":14046,"빠른":14047,"##이크":14048,"이놈의":14049,"무장":14050,"항공":14051,"##놈을":14052,"들어가서":14053,"됐다":14054,"##욕을":14055,"##짓은":14056,"몇백":14057,"##오르":14058,"민주주의를":14059,"##망이":14060,"##것들아":14061,"마음을":14062,"비밀":14063,"##박살":14064,"##납니다":14065,"되는지":14066,"하느":14067,"전과":14068,"즉각":14069,"노인네":14070,"##달고":14071,"kbs":14072,"빤스":14073,"아내":14074,"각자":14075,"제주":14076,"유족":14077,"전남":14078,"탄핵이":14079,"윤지오":14080,"##해주면":14081,"##일텐데":14082,"좌빨들은":14083,"신념":14084,"있어야지":14085,"것만":14086,"조국수호":14087,"저녁":14088,"##곳은":14089,"정은이가":14090,"손을":14091,"넘이":14092,"멋진":14093,"##소를":14094,"편파":14095,"안타까운":14096,"##간의":14097,"원내대표":14098,"##에서만":14099,"먼저다":14100,"있으":14101,"한강":14102,"##투자":14103,"글고":14104,"받게":14105,"판사가":14106,"때도":14107,"##지않는":14108,"딸은":14109,"##못차":14110,"##직원":14111,"나은":14112,"개돼지들은":14113,"일반인":14114,"##선수":14115,"여가":14116,"##립시다":14117,"철면피":14118,"던져":14119,"##치도":14120,"##당으로":14121,"##인간이":14122,"유시민이":14123,"한두번":14124,"국적":14125,"동양대":14126,"그만좀":14127,"##리려고":14128,"##겠음":14129,"관심이":14130,"정부탓":14131,"교주":14132,"손바닥":14133,"##것이고":14134,"트럼프는":14135,"상식이":14136,"민주노총":14137,"##드네":14138,"##산이":14139,"정신차려":14140,"##한텐":14141,"##던거":14142,"##했을까":14143,"생각하지":14144,"못하지":14145,"죽어야":14146,"##대국":14147,"부역":14148,"##부인":14149,"전라도는":14150,"윤석열이":14151,"다음은":14152,"사는데":14153,"##무능":14154,"##센트":14155,"누군지":14156,"##싫어":14157,"사과를":14158,"추락":14159,"맞나":14160,"앞세":14161,"유학생":14162,"팔고":14163,"##풀이":14164,"소주":14165,"나오는데":14166,"날아":14167,"내야":14168,"폐간":14169,"머가리":14170,"##없나":14171,"숨어":14172,"##봤는데":14173,"선거때":14174,"결론은":14175,"##대해":14176,"##소에":14177,"##놀이":14178,"하더라":14179,"후에":14180,"##관광":14181,"소용":14182,"##소에서":14183,"만족":14184,"실질":14185,"잡는":14186,"나갈":14187,"답다":14188,"##인거지":14189,"차이가":14190,"장군":14191,"전부다":14192,"하나로":14193,"모자라":14194,"나발":14195,"이뤄":14196,"흘러":14197,"동급":14198,"##하의":14199,"다닌":14200,"##사관":14201,"##효과":14202,"민주당에":14203,"국민들한테":14204,"근처":14205,"들어갈":14206,"공소":14207,"최소한의":14208,"그대":14209,"무상":14210,"있으니까":14211,"처벌을":14212,"##정으로":14213,"빼돌":14214,"이탈리아":14215,"##년동안":14216,"뉴스에":14217,"방치":14218,"세금도":14219,"남편이":14220,"사람만":14221,"검토":14222,"얼굴이":14223,"허가":14224,"##보니까":14225,"##력은":14226,"하고는":14227,"많아요":14228,"저럴":14229,"조차":14230,"##세훈":14231,"통화":14232,"##판결":14233,"권력의":14234,"너그":14235,"오바":14236,"비리가":14237,"어쨌":14238,"그땐":14239,"##유총":14240,"##층이":14241,"관심도":14242,"보이는데":14243,"무한":14244,"##세계":14245,"듣는":14246,"##우기":14247,"짖어":14248,"대통령과":14249,"기원":14250,"안남":14251,"이동":14252,"혹은":14253,"##나온":14254,"엘지":14255,"택배":14256,"시나":14257,"주차":14258,"##리에":14259,"국무":14260,"될듯":14261,"늙은이":14262,"변태":14263,"##같음":14264,"##질로":14265,"##하진":14266,"못배":14267,"##수하고":14268,"선거에":14269,"경찰은":14270,"쉬운":14271,"망치고":14272,"##위반":14273,"##만들고":14274,"문재인씨":14275,"유일한":14276,"아니죠":14277,"극단":14278,"기어나":14279,"생겼네":14280,"끝나고":14281,"유출":14282,"중국한테":14283,"##으로도":14284,"모름":14285,"놓은":14286,"##경우":14287,"##래요":14288,"들어갔":14289,"진실은":14290,"쪽빠리":14291,"##디언":14292,"들어가는":14293,"##차고":14294,"입장에서":14295,"법의":14296,"공기업":14297,"##넘어":14298,"유포":14299,"##향이":14300,"##할것이다":14301,"반납":14302,"페미니":14303,"확보":14304,"##대책":14305,"희망이":14306,"친문":14307,"최저시급":14308,"등교":14309,"패스트트랙":14310,"##분의":14311,"##😱😱":14312,"피눈물":14313,"##리트":14314,"나라경제":14315,"살해":14316,"작살":14317,"총선에":14318,"밀고":14319,"똑똑한":14320,"##대지":14321,"여당이":14322,"##미사일":14323,"##였지":14324,"기사로":14325,"살아서":14326,"좃국":14327,"##없냐":14328,"문제야":14329,"만들지":14330,"##전이":14331,"떨어질":14332,"숫자":14333,"##아파트":14334,"하다하다":14335,"최초":14336,"심판을":14337,"많았":14338,"상품":14339,"진술":14340,"##옵니다":14341,"단체로":14342,"정수기":14343,"지킬":14344,"지자체":14345,"욕할":14346,"채용":14347,"쓰레기들이":14348,"총살":14349,"##시험":14350,"##통을":14351,"##전부터":14352,"사람들의":14353,"##세는":14354,"하는가":14355,"김현":14356,"반역":14357,"수용":14358,"인한":14359,"조씨":14360,"고민정":14361,"것임":14362,"##해질":14363,"세계가":14364,"최대한":14365,"나팔":14366,"실체":14367,"준다":14368,"미국을":14369,"##자라":14370,"##리로":14371,"##대갈":14372,"##하는걸":14373,"어려움":14374,"자빠졌":14375,"말아먹고":14376,"양성":14377,"정권바뀌":14378,"급여":14379,"치킨":14380,"##둥이":14381,"##여러분":14382,"##와도":14383,"발견":14384,"##조금":14385,"##뒤에":14386,"그러고도":14387,"모임":14388,"카메라":14389,"강력하게":14390,"연장":14391,"엄마가":14392,"따라서":14393,"순진":14394,"없으면서":14395,"법적으로":14396,"파는":14397,"당신을":14398,"더듬어":14399,"무책임":14400,"##하기는":14401,"글로벌":14402,"더럽다":14403,"짜증난다":14404,"##으려면":14405,"황교안은":14406,"같으면":14407,"남들":14408,"경제도":14409,"하겠냐":14410,"##간다고":14411,"##천원":14412,"있는것":14413,"##봐서":14414,"댓글은":14415,"뜻을":14416,"##랑이":14417,"##선생":14418,"받는다":14419,"장모":14420,"죄인이":14421,"##지냐":14422,"##궁창":14423,"사전투표":14424,"분들은":14425,"중국도":14426,"##투쟁":14427,"민주당의":14428,"##인민":14429,"지나가":14430,"날라":14431,"서울시":14432,"일하고":14433,"있긴":14434,"처먹고":14435,"연관":14436,"영장":14437,"믿음":14438,"황대표":14439,"하시는":14440,"걸리":14441,"자체를":14442,"찍고":14443,"의혹이":14444,"##소리를":14445,"한유총":14446,"마당에":14447,"하는거야":14448,"자슥":14449,"불공":14450,"주머니":14451,"##퓰리즘":14452,"##하루":14453,"맞아요":14454,"여유":14455,"##만명이":14456,"썩어빠진":14457,"##려구":14458,"##인지도":14459,"만들면":14460,"피곤":14461,"정준":14462,"하신":14463,"##이름":14464,"도배":14465,"야동":14466,"##사람을":14467,"세금만":14468,"바뀐":14469,"##프레임":14470,"자금":14471,"타다":14472,"##공장":14473,"##집에서":14474,"##구는":14475,"##한것도":14476,"##자라고":14477,"중재":14478,"##미래":14479,"지랄을":14480,"분석":14481,"##수작":14482,"수요":14483,"##많다":14484,"이번에는":14485,"하늘이":14486,"선진":14487,"##과의":14488,"이때":14489,"한국도":14490,"책임은":14491,"거임":14492,"맞냐":14493,"##카드":14494,"드립":14495,"언론의":14496,"채널":14497,"##위병":14498,"이렇":14499,"##키들":14500,"##부터가":14501,"이용하는":14502,"##거니":14503,"##셨네":14504,"다른데":14505,"목숨걸고":14506,"가슴이":14507,"통신":14508,"방위비":14509,"부정부":14510,"현실이":14511,"개혁을":14512,"개인이":14513,"참고로":14514,"내편":14515,"##거리가":14516,"##개는":14517,"의한":14518,"저런거":14519,"듣기":14520,"점령":14521,"한숨":14522,"##되네":14523,"##배상":14524,"촛불집회":14525,"안에":14526,"잘해라":14527,"대대":14528,"웃겨":14529,"하던가":14530,"##두면":14531,"하루에":14532,"있기":14533,"##수에":14534,"##국인":14535,"##유지":14536,"걷어":14537,"억울한":14538,"매도":14539,"개정":14540,"회사가":14541,"##드냐":14542,"##의혹":14543,"탈을":14544,"##만든":14545,"모독":14546,"입다":14547,"##세에":14548,"##사냐":14549,"물러나":14550,"화장실":14551,"신상공개":14552,"뭉가":14553,"넣어":14554,"힘들고":14555,"못가":14556,"유통":14557,"똥을":14558,"편향":14559,"꿈꾸":14560,"##거운":14561,"##했다가":14562,"소환":14563,"##력도":14564,"입원":14565,"##부정":14566,"때려잡":14567,"다닐":14568,"##했겠지":14569,"있죠":14570,"##규모":14571,"뭐하고":14572,"주위":14573,"가세요":14574,"지정":14575,"아파":14576,"관광객":14577,"싶네요":14578,"또라":14579,"스마트폰":14580,"안찍":14581,"##되길":14582,"인공":14583,"선동에":14584,"생각해봐라":14585,"##살다":14586,"야비":14587,"개도":14588,"화웨이":14589,"정규직":14590,"지금처럼":14591,"민주화운동":14592,"맘충":14593,"와중에":14594,"정책이":14595,"오세훈":14596,"사재":14597,"국민혈":14598,"어디갔":14599,"평화를":14600,"평양":14601,"더불어공산당":14602,"35":14603,"까발":14604,"##었구나":14605,"##없애":14606,"징글징글":14607,"거고":14608,"넘들이":14609,"다녔":14610,"이쁘":14611,"죽게":14612,"##분을":14613,"##인양":14614,"토착왜구들":14615,"대법원":14616,"많습니다":14617,"싶네":14618,"요금":14619,"일만":14620,"보이콧":14621,"##버리는":14622,"국회의원들":14623,"안중에도":14624,"##방식":14625,"것이지":14626,"##냅시다":14627,"가치가":14628,"즉시":14629,"중국발":14630,"##부도":14631,"준다고":14632,"문재앙의":14633,"등록":14634,"명확":14635,"없던":14636,"이번기":14637,"##복지":14638,"##로써":14639,"공산당이":14640,"알바들":14641,"쳐넣":14642,"스펙":14643,"정의는":14644,"피해가":14645,"다니고":14646,"줄줄이":14647,"##자빠":14648,"어려울":14649,"배가":14650,"##내기":14651,"그날":14652,"인격":14653,"주제":14654,"##치다":14655,"##사들":14656,"소재":14657,"##안하면":14658,"국정원":14659,"곳에":14660,"열어":14661,"지은":14662,"곱게":14663,"나갔":14664,"##올려":14665,"##순이":14666,"국론":14667,"축구":14668,"너를":14669,"은퇴":14670,"초등학생":14671,"마시":14672,"아픔":14673,"진동":14674,"사고를":14675,"다르다":14676,"길을":14677,"##거늘":14678,"##예산":14679,"삼가":14680,"정의롭":14681,"물어뜯":14682,"##포기":14683,"민주당을":14684,"대리":14685,"시기에":14686,"파기":14687,"것에":14688,"##쓰면":14689,"##고만":14690,"재인아":14691,"달러":14692,"만나서":14693,"##니가":14694,"까불":14695,"한자리":14696,"대부분이":14697,"못하니":14698,"잠시":14699,"싶은데":14700,"이완용":14701,"개돼지들아":14702,"아시":14703,"##명도":14704,"바꿔라":14705,"몇개":14706,"누구냐":14707,"국민세금으로":14708,"하려면":14709,"##방해":14710,"사람이다":14711,"떠나라":14712,"김무":14713,"##체크":14714,"고쳐":14715,"합격":14716,"헌금":14717,"구속수사":14718,"잘해서":14719,"##군데":14720,"##저분":14721,"##이란걸":14722,"오해":14723,"##구녕":14724,"##릅니다":14725,"31번":14726,"다물":14727,"백성":14728,"시킬":14729,"##로부터":14730,"##60":14731,"##시키자":14732,"##매국노":14733,"적와대":14734,"전쟁을":14735,"정치판":14736,"박근혜때":14737,"봤는데":14738,"사생활":14739,"하나는":14740,"기념":14741,"##아야지":14742,"##종일":14743,"같고":14744,"물러나라":14745,"회담":14746,"##빠는":14747,"저런걸":14748,"임종석":14749,"##보인다":14750,"##스를":14751,"종로":14752,"좋을":14753,"##색이":14754,"아작":14755,"인성이":14756,"##꺼면":14757,"수수":14758,"##가격":14759,"시계":14760,"계엄":14761,"찍소리도":14762,"안걸":14763,"##하던가":14764,"사과하고":14765,"새끼들은":14766,"공수처가":14767,"등에":14768,"몰락":14769,"광우병":14770,"너희는":14771,"드는":14772,"위하는":14773,"사퇴해라":14774,"##까진":14775,"##대통령이":14776,"국토":14777,"중국산":14778,"수준의":14779,"개성공":14780,"싶지":14781,"싫고":14782,"##화는":14783,"##달러":14784,"김성태":14785,"카페":14786,"부끄러움":14787,"가끔":14788,"계신":14789,"수두":14790,"사회에서":14791,"##자격":14792,"정신못차":14793,"부채":14794,"이러고":14795,"내보내":14796,"##고싶은":14797,"##ou":14798,"좌빨들이":14799,"##할머니":14800,"##받아서":14801,"몰랐다":14802,"있겠냐":14803,"##일가":14804,"내년에":14805,"이런데도":14806,"나몰":14807,"도쿄":14808,"##ㅂㄷ":14809,"카톡":14810,"##넘들이":14811,"##제재":14812,"강제징":14813,"6개월":14814,"깜방":14815,"##놈도":14816,"은폐":14817,"괴물":14818,"망하고":14819,"옳고":14820,"##청구":14821,"##낭비":14822,"공중":14823,"##에대한":14824,"어디다":14825,"되서":14826,"잠깐":14827,"키우는":14828,"##버는":14829,"시골":14830,"폭락":14831,"인생을":14832,"시궁창":14833,"죄없는":14834,"##훼손":14835,"아들은":14836,"##쩝쩝":14837,"믿지":14838,"##연구":14839,"##남용":14840,"인민재판":14841,"150":14842,"아는게":14843,"##에나":14844,"##하는것이":14845,"##이잖아":14846,"##있는지":14847,"오죽하면":14848,"철회":14849,"광화문에":14850,"방법을":14851,"궤변":14852,"오지네":14853,"##규제":14854,"##자들에게":14855,"공화":14856,"소수":14857,"싸워":14858,"용기":14859,"추구":14860,"##al":14861,"만들려고":14862,"최순실이":14863,"일어난":14864,"어때":14865,"##이드":14866,"똘똘":14867,"##해야된다":14868,"그걸로":14869,"국민도":14870,"그릇":14871,"노란":14872,"틀니":14873,"소리는":14874,"달리":14875,"한마디도":14876,"고객":14877,"입에서":14878,"##한줄":14879,"사건이":14880,"무관":14881,"하나가":14882,"순실이":14883,"##지는데":14884,"##티비":14885,"조현":14886,"##진당":14887,"동아":14888,"후예":14889,"##되는게":14890,"##우선":14891,"모범":14892,"##형이":14893,"이간질":14894,"주체":14895,"기회를":14896,"##님도":14897,"##억이":14898,"##것입니다":14899,"연설":14900,"잡을":14901,"힘든데":14902,"내주":14903,"명품":14904,"사고가":14905,"##퓨터":14906,"##바람":14907,"이상하게":14908,"소유":14909,"폭발":14910,"##동이":14911,"나가는":14912,"##혁명":14913,"이제부터":14914,"역사의":14915,"허락":14916,"마귀":14917,"문준":14918,"바보로":14919,"##미는":14920,"상대방":14921,"##ar":14922,"##껀데":14923,"안되니":14924,"##되야":14925,"유공":14926,"##이들아":14927,"정신들":14928,"쓰레기같은":14929,"##받았":14930,"##순위":14931,"들통":14932,"아무말":14933,"##드니":14934,"##ct":14935,"생각함":14936,"눈감":14937,"있는거지":14938,"##천만원":14939,"잘못은":14940,"사건을":14941,"##이겠지":14942,"고통을":14943,"아이디":14944,"말든":14945,"##리스":14946,"안함":14947,"보수의":14948,"세습":14949,"나라와":14950,"180석":14951,"##죄를":14952,"##해보세요":14953,"내용이":14954,"무덤":14955,"##열면":14956,"##정에서":14957,"무시하는":14958,"넘겨":14959,"신종":14960,"심한":14961,"##나올":14962,"모르니":14963,"자한당과":14964,"교활한":14965,"##신교":14966,"생각해서":14967,"이나라를":14968,"사태가":14969,"새퀴":14970,"어릴":14971,"##보유":14972,"책임지고":14973,"그러는":14974,"##만하는":14975,"##아웃":14976,"정도껏":14977,"성별":14978,"##나봐":14979,"##남자":14980,"일찍":14981,"##11":14982,"##있어서":14983,"그들":14984,"숨기":14985,"##받아라":14986,"군대가":14987,"##사리":14988,"##실한":14989,"##가진":14990,"저항":14991,"직권":14992,"##년아":14993,"고마워":14994,"의도가":14995,"##르지":14996,"##하듯":14997,"합리적":14998,"개똥":14999,"보이냐":15000,"일본에게":15001,"본인들이":15002,"알아야지":15003,"촉새":15004,"안락":15005,"부정부패":15006,"##00원":15007,"국고":15008,"인건비":15009,"올릴":15010,"댓글로":15011,"뒷통수":15012,"##모르는":15013,"빨고":15014,"##절히":15015,"선언":15016,"질본":15017,"그렇다면":15018,"##속도로":15019,"뭔소리":15020,"호주":15021,"대구시민":15022,"먹으면":15023,"해야할":15024,"알면":15025,"죽는다":15026,"생명을":15027,"##끼야":15028,"망치는":15029,"결코":15030,"##전을":15031,"잡으면":15032,"##안된다":15033,"개거품":15034,"##조는":15035,"합니까":15036,"눈물이":15037,"퇴직":15038,"끝판":15039,"맞는거":15040,"징계":15041,"추모":15042,"##사나":15043,"##보면서":15044,"양산":15045,"오리":15046,"쳐맞":15047,"안타깝네요":15048,"##것지":15049,"##권분":15050,"애국자":15051,"국군":15052,"##해서는":15053,"알수":15054,"##일이다":15055,"했지만":15056,"나중":15057,"##자한당":15058,"누구도":15059,"공매":15060,"된거":15061,"##더군요":15062,"필리핀":15063,"그려":15064,"말과":15065,"분양":15066,"일에":15067,"표현의":15068,"최강":15069,"조국도":15070,"##안한":15071,"##라는데":15072,"##가니":15073,"##중인데":15074,"##이었다":15075,"##봤냐":15076,"최선을":15077,"좋겠네":15078,"공범":15079,"벌을":15080,"법조":15081,"##번호":15082,"지롤":15083,"##아래":15084,"##이용":15085,"##국방":15086,"연평":15087,"수두룩":15088,"담당":15089,"뭐래":15090,"비해":15091,"##부족":15092,"와이프":15093,"눈을":15094,"자는":15095,"마니":15096,"천국":15097,"사랑하는":15098,"세우":15099,"##탄압":15100,"모자란":15101,"떨거지":15102,"모인":15103,"하시고":15104,"여름":15105,"잘사는":15106,"지지한다":15107,"사람들에게":15108,"##애가":15109,"되게":15110,"안심":15111,"출연":15112,"한계":15113,"바른말":15114,"해방":15115,"북한도":15116,"##미로":15117,"바쁜":15118,"잠재":15119,"차리":15120,"##이군":15121,"안봐도":15122,"토나온다":15123,"집값이":15124,"##될듯":15125,"득실":15126,"우기":15127,"##있는거":15128,"인간도":15129,"##것냐":15130,"박쥐":15131,"나와도":15132,"##민당":15133,"좋냐":15134,"워낙":15135,"어려워":15136,"뭘까":15137,"나경원은":15138,"시각":15139,"지켜야":15140,"개한":15141,"있는건":15142,"노동자":15143,"노벨":15144,"봅시다":15145,"이것은":15146,"##세력이":15147,"같지":15148,"교묘":15149,"여긴":15150,"희대의":15151,"##스러워":15152,"높아":15153,"들을":15154,"##그렇게":15155,"##덕에":15156,"게이":15157,"생존":15158,"##장군":15159,"허위사실":15160,"추하다":15161,"성경":15162,"세계에서":15163,"이와중에":15164,"직무":15165,"##어야한다":15166,"편히":15167,"할텐데":15168,"##어로":15169,"##성으로":15170,"##새끼들이":15171,"책임이":15172,"과거에":15173,"꺼지":15174,"##있을":15175,"OOO이":15176,"장애인":15177,"약국":15178,"따뜻":15179,"똥싸":15180,"맞추":15181,"##문을":15182,"소리하네":15183,"안그래도":15184,"포퓰리즘":15185,"같아서":15186,"못잡":15187,"사람으로":15188,"두려워":15189,"22":15190,"##어버리고":15191,"##입학":15192,"길이":15193,"되도":15194,"조구":15195,"ㅂㄷ":15196,"강아지":15197,"지키고":15198,"뻔뻔하게":15199,"대기":15200,"##좋다":15201,"##죄가":15202,"이름을":15203,"정준영":15204,"기여":15205,"노출":15206,"불행":15207,"##불매":15208,"##투리":15209,"얼마전":15210,"서울시장":15211,"##감이다":15212,"##해보지":15213,"그치":15214,"경제적":15215,"계좌":15216,"안희":15217,"별거":15218,"일본가서":15219,"사태를":15220,"불구하고":15221,"김원봉":15222,"이런일이":15223,"선물":15224,"악랄":15225,"독재정권":15226,"임신":15227,"세상에서":15228,"따져":15229,"막상":15230,"안뽑":15231,"##안해":15232,"##입장":15233,"따지면":15234,"석탄":15235,"##했구나":15236,"이름으로":15237,"가까이":15238,"웃겠다":15239,"##차례":15240,"없애야":15241,"사법개혁":15242,"버려":15243,"##지금":15244,"아닌것":15245,"개성공단":15246,"해주고":15247,"##개돼지":15248,"학생들이":15249,"손에":15250,"없잖아":15251,"자유가":15252,"##사의":15253,"쓰레기가":15254,"##으시":15255,"어디가":15256,"3억":15257,"##만개":15258,"##생긴":15259,"##진보":15260,"보낼":15261,"자라":15262,"혐한":15263,"##이면서":15264,"##내내":15265,"전수조사":15266,"싫어요":15267,"거지같은":15268,"안되냐":15269,"왜케":15270,"##공격":15271,"정치인들이":15272,"아휴":15273,"윤총":15274,"여자들은":15275,"욕도":15276,"시설":15277,"시나리오":15278,"##말종":15279,"숨기고":15280,"##스라":15281,"실컷":15282,"하던지":15283,"버린":15284,"줄서":15285,"아오":15286,"오마이":15287,"작성":15288,"202":15289,"안타까":15290,"냄비":15291,"많을":15292,"서류":15293,"##감은":15294,"나의":15295,"짓은":15296,"당신들은":15297,"##시원":15298,"##스는":15299,"운전자":15300,"꼬라지가":15301,"지저분":15302,"##디오":15303,"그것을":15304,"깨진":15305,"어쩌면":15306,"삼성은":15307,"언행":15308,"프로그램":15309,"생각하냐":15310,"성역":15311,"네일베":15312,"생각하니":15313,"붕괴":15314,"##는걸":15315,"##치냐":15316,"했음":15317,"정신차리고":15318,"죽을때까지":15319,"노망":15320,"에혀":15321,"개미":15322,"##까고":15323,"결과를":15324,"##들끼리":15325,"역사가":15326,"탄생":15327,"##부에":15328,"우리나라의":15329,"부류":15330,"크다":15331,"##찬다":15332,"안쓰고":15333,"죽었다":15334,"##배로":15335,"이번에도":15336,"책임질":15337,"많으니":15338,"기부금":15339,"난민":15340,"입법":15341,"납득":15342,"우울":15343,"남자들이":15344,"개누리":15345,"##졌다고":15346,"보여주기":15347,"평화가":15348,"되는게":15349,"##들지":15350,"##하던지":15351,"수능":15352,"세상은":15353,"전직":15354,"##권은":15355,"##실이":15356,"북핵":15357,"수는":15358,"토왜":15359,"##희롱":15360,"##나라로":15361,"##등급":15362,"민주당도":15363,"알면서도":15364,"안됐":15365,"공통":15366,"아침부터":15367,"법도":15368,"일주일":15369,"못하네":15370,"##것임":15371,"생기면":15372,"이들이":15373,"##5년":15374,"지키는":15375,"철거":15376,"##하더만":15377,"##단계":15378,"##국민들":15379,"걸릴":15380,"저렴":15381,"군대도":15382,"고개":15383,"노후":15384,"법과":15385,"부도":15386,"온다":15387,"대책을":15388,"에게":15389,"하려는":15390,"궁금하네":15391,"한대":15392,"대마":15393,"웃을":15394,"##세여":15395,"##쪽에":15396,"##새끼야":15397,"어벙":15398,"##시도":15399,"뭐라도":15400,"치사":15401,"놀라":15402,"당이":15403,"모르면서":15404,"##한거고":15405,"줄이고":15406,"##파이":15407,"##려니":15408,"접촉":15409,"##자마자":15410,"##파는":15411,"일어날":15412,"##트롤":15413,"인생이":15414,"##그라":15415,"##까지도":15416,"##퍼센트":15417,"박사모":15418,"증거를":15419,"모르게":15420,"서울에":15421,"수습":15422,"##진영":15423,"입맛에":15424,"내수":15425,"않지만":15426,"했을까":15427,"기사화":15428,"증언":15429,"할매":15430,"##아내":15431,"생길":15432,"##도없는":15433,"택시기사":15434,"영원한":15435,"이번기회에":15436,"##다니고":15437,"뻔뻔함":15438,"빨개":15439,"세종":15440,"비정규직":15441,"##이오":15442,"내용을":15443,"##일때":15444,"##처분":15445,"제발좀":15446,"##나오네":15447,"가리":15448,"고정":15449,"##주제에":15450,"##식의":15451,"얘기를":15452,"니도":15453,"한방에":15454,"단독":15455,"##려다":15456,"왜놈":15457,"잘먹고":15458,"미래는":15459,"개나소나":15460,"끝내":15461,"문자":15462,"비율":15463,"##편이":15464,"재앙이다":15465,"##업자득":15466,"제기":15467,"##길이":15468,"##주는게":15469,"생각만":15470,"돌아간다":15471,"인원":15472,"제로":15473,"한전":15474,"##소서":15475,"##할때는":15476,"없게":15477,"##재가":15478,"명절":15479,"공무원이":15480,"있다는게":15481,"##배가":15482,"##팔아":15483,"등장":15484,"##한사람":15485,"사모펀드":15486,"듣지":15487,"불통":15488,"작품":15489,"했더니":15490,"##협회":15491,"##어버린":15492,"허구헌":15493,"나이가":15494,"것과":15495,"54":15496,"원망":15497,"이인":15498,"중고":15499,"팍팍":15500,"지지하고":15501,"폐업":15502,"##공부":15503,"##줬으면":15504,"언론에서":15505,"##들만의":15506,"초등학교":15507,"공영":15508,"겨울":15509,"##한듯":15510,"실행":15511,"짜장":15512,"컴퓨터":15513,"평소에":15514,"팩트는":15515,"떨고":15516,"##집은":15517,"친박":15518,"##하기전에":15519,"감추":15520,"##테니까":15521,"##렸으면":15522,"존경합니다":15523,"##실패":15524,"##줍시다":15525,"써서":15526,"##권분립":15527,"##가는거":15528,"맞을":15529,"##묻은":15530,"##는지도":15531,"저질러":15532,"골프":15533,"숙청":15534,"##야당":15535,"##도한":15536,"##드립":15537,"##가는게":15538,"선생님":15539,"시켜서":15540,"타격":15541,"##와는":15542,"가는데":15543,"정황":15544,"목을":15545,"##반하":15546,"이상황":15547,"어쩌냐":15548,"벗어":15549,"우와":15550,"##그렇":15551,"무너뜨":15552,"종특":15553,"털어서":15554,"##돈을":15555,"##본데":15556,"##집어":15557,"신중":15558,"전달":15559,"##선에서":15560,"저러고":15561,"생각나네":15562,"받아야지":15563,"핵을":15564,"##버릴":15565,"할지":15566,"감수":15567,"전환":15568,"##한국당":15569,"사표":15570,"##겟네":15571,"문재인이가":15572,"폭로":15573,"사회악":15574,"선거에서":15575,"조사를":15576,"대부분의":15577,"감염자":15578,"듣보":15579,"생겼다":15580,"실업자":15581,"홍위병":15582,"##행사":15583,"##그럼":15584,"적화통일":15585,"자업자득":15586,"떨어져":15587,"드럽게":15588,"유흥":15589,"##치에":15590,"사주":15591,"##증상":15592,"##양아치":15593,"이것들아":15594,"한통":15595,"일산":15596,"##급한":15597,"마스크는":15598,"나옴":15599,"대깨문들아":15600,"고3":15601,"언플":15602,"하더라도":15603,"할아버지":15604,"자식을":15605,"3대":15606,"귀신":15607,"팔아서":15608,"##상승":15609,"솔까":15610,"##넘은":15611,"사람한테":15612,"민심을":15613,"버리":15614,"싸지":15615,"더더욱":15616,"경남":15617,"주둔":15618,"밑에서":15619,"우익":15620,"유행":15621,"##시리":15622,"뭘로":15623,"챙피":15624,"디지":15625,"개인적으로":15626,"떠드는":15627,"설레":15628,"언제고":15629,"보내야":15630,"블랙리스트":15631,"##났다고":15632,"앉혀":15633,"자들":15634,"간섭":15635,"떡검":15636,"##만하다":15637,"##집행":15638,"##하고있다":15639,"최종":15640,"##HO":15641,"선동하는":15642,"시민들":15643,"부러":15644,"지어":15645,"귀걸이":15646,"은근":15647,"많지":15648,"의학":15649,"##었을까":15650,"개신교":15651,"노인들":15652,"엉뚱한":15653,"한국인들":15654,"수준으로":15655,"영구":15656,"든든":15657,"북돼지":15658,"콩밥":15659,"##한건데":15660,"##데타":15661,"왜이렇게":15662,"천막":15663,"서민들은":15664,"의견을":15665,"##할땐":15666,"출동":15667,"jtbc":15668,"뒤질":15669,"##집안":15670,"##기레기":15671,"국회에":15672,"했어야지":15673,"##요금":15674,"수준을":15675,"사건은":15676,"깨달":15677,"##가로":15678,"지나면":15679,"등을":15680,"주문":15681,"니미":15682,"좌파정권":15683,"공적":15684,"박통":15685,"배부":15686,"집합":15687,"문재인정권":15688,"재앙이는":15689,"때까지":15690,"지금껏":15691,"권력이":15692,"##환경":15693,"이렇게까지":15694,"미워":15695,"여자를":15696,"그당시":15697,"서해":15698,"강용":15699,"맘카페":15700,"오줌":15701,"조로남불":15702,"가슴에":15703,"사회를":15704,"기타":15705,"넣고":15706,"하라는":15707,"하는거다":15708,"건너":15709,"##관을":15710,"당신같은":15711,"대구시장":15712,"##드나":15713,"놈들아":15714,"아무튼":15715,"다하고":15716,"##치는데":15717,"저것들은":15718,"##이만":15719,"##것인가":15720,"마다":15721,"##난리":15722,"##히면":15723,"##훈련":15724,"##원으로":15725,"성희롱":15726,"실검":15727,"##at":15728,"ㅂㄷㅂㄷ":15729,"##았지":15730,"정부도":15731,"있다니":15732,"쓰냐":15733,"##없게":15734,"되어서":15735,"실명":15736,"##주라":15737,"##구를":15738,"##혐의":15739,"태어난":15740,"36":15741,"말하는거":15742,"선량한":15743,"오를":15744,"##렸다고":15745,"취직":15746,"##장사":15747,"말이되냐":15748,"평범한":15749,"안했":15750,"##안하는":15751,"하나씩":15752,"되야":15753,"최후":15754,"##게요":15755,"MBC":15756,"비리를":15757,"사탄":15758,"압도":15759,"##분간":15760,"정도가":15761,"##누가":15762,"입은":15763,"사라질":15764,"숨겨":15765,"##00만원":15766,"##안무":15767,"##인해":15768,"고의":15769,"싫지만":15770,"없으니까":15771,"몇달":15772,"측근":15773,"혜택을":15774,"쿠팡":15775,"적반하":15776,"##들이냐":15777,"##하시네":15778,"이는":15779,"조선일보는":15780,"저러니":15781,"마스크가":15782,"느낌이":15783,"기계":15784,"말하지":15785,"##기때문에":15786,"강제징용":15787,"뜬금":15788,"##해지고":15789,"##연대":15790,"##답시고":15791,"목적이":15792,"##ㄹㄱ":15793,"고급":15794,"신재":15795,"##분별":15796,"더러워":15797,"조공":15798,"##성향":15799,"가격이":15800,"26":15801,"메갈":15802,"확대":15803,"##7년":15804,"민식이법":15805,"##임이":15806,"면허":15807,"##짱깨":15808,"허구헌날":15809,"ㄷㅅ":15810,"23":15811,"신속":15812,"##주나":15813,"##기전":15814,"중국인이":15815,"##병이":15816,"애들도":15817,"##읍니다":15818,"교육을":15819,"똥인지":15820,"천벌을":15821,"##해줘야":15822,"문준용":15823,"여적":15824,"기간":15825,"접근":15826,"안좋은":15827,"##판을":15828,"2억":15829,"하이":15830,"동시에":15831,"말종":15832,"##촉새":15833,"여자도":15834,"지겨":15835,"형사":15836,"짜증나":15837,"몇몇":15838,"역쉬":15839,"웃는다":15840,"##맞아":15841,"돈받고":15842,"##시스템":15843,"##he":15844,"직원들":15845,"쥐어":15846,"다행이다":15847,"여론이":15848,"색깔":15849,"강연":15850,"하나라도":15851,"##변호사":15852,"보이네":15853,"##저런":15854,"##장애":15855,"아까운":15856,"처형":15857,"편의점":15858,"음성":15859,"모르지만":15860,"언젠가":15861,"실현":15862,"##요일":15863,"몇일":15864,"재정":15865,"들어온":15866,"##있습니다":15867,"새기":15868,"##또한":15869,"멸망":15870,"않아요":15871,"척결":15872,"한민족":15873,"##12":15874,"묻고":15875,"쟤네":15876,"##대면":15877,"##랄까봐":15878,"정신차리":15879,"좃선일보":15880,"개탄":15881,"자식은":15882,"##들갑":15883,"정권에서":15884,"걱정이다":15885,"믿음이":15886,"되니까":15887,"##로당":15888,"##럽고":15889,"고사":15890,"##구조":15891,"살수":15892,"쓰래기":15893,"하자고":15894,"역사상":15895,"##낸다":15896,"부엉":15897,"##믿고":15898,"치졸":15899,"##같지도":15900,"##시대에":15901,"새삼":15902,"챙기는":15903,"##된다는":15904,"안민":15905,"##조심":15906,"개표":15907,"##걸린":15908,"국회의":15909,"힘없는":15910,"##보로":15911,"##카오":15912,"##리어":15913,"##눈치":15914,"##해야죠":15915,"여러가지":15916,"이네":15917,"##TBC":15918,"나를":15919,"##할수가":15920,"화이트":15921,"문재앙을":15922,"총장님":15923,"지지를":15924,"민좃당":15925,"유재":15926,"추한":15927,"##할수도":15928,"소년":15929,"쪼개":15930,"관여":15931,"멋대로":15932,"굽신":15933,"매크로":15934,"##히지":15935,"돌아오":15936,"1번":15937,"하나하나":15938,"거꾸로":15939,"때리고":15940,"봐야지":15941,"##료를":15942,"논리가":15943,"##로도":15944,"다르게":15945,"잘한다고":15946,"주가":15947,"살아온":15948,"유튜버":15949,"역사는":15950,"##노예":15951,"##보게":15952,"미국으로":15953,"국격":15954,"싶냐":15955,"##이라는데":15956,"개고생":15957,"변화":15958,"전락":15959,"##고가":15960,"##om":15961,"비아":15962,"통해서":15963,"##일당":15964,"골로":15965,"##짓이":15966,"##혜택":15967,"간호사":15968,"입증":15969,"서서히":15970,"막장":15971,"틀어":15972,"##잖은":15973,"가난한":15974,"##나갈":15975,"##나보다":15976,"##소릴":15977,"개소리를":15978,"경우가":15979,"##전환":15980,"단단":15981,"백번":15982,"선조":15983,"국민에":15984,"이해를":15985,"감소":15986,"제압":15987,"##안다":15988,"##폐기":15989,"정당한":15990,"아버지가":15991,"느꼈":15992,"살림":15993,"##드로":15994,"말한마디":15995,"되길":15996,"하루종일":15997,"너만":15998,"오픈":15999,"회장":16000,"닭그네":16001,"파이팅":16002,"펑펑":16003,"유엔":16004,"##질하는":16005,"안나온다":16006,"잘만":16007,"1차":16008,"##해가":16009,"어렵게":16010,"기울":16011,"뭔지도":16012,"강의":16013,"##매한":16014,"행동은":16015,"손절":16016,"##종자":16017,"세월호는":16018,"드러운":16019,"어쩐":16020,"이랬":16021,"공개해라":16022,"팩트를":16023,"청탁":16024,"편법":16025,"생각하나":16026,"감독":16027,"노는":16028,"분야":16029,"올려서":16030,"사람인데":16031,"##종북":16032,"말해라":16033,"##못하게":16034,"##피셜":16035,"##하지는":16036,"2번":16037,"##공작":16038,"세무":16039,"손님":16040,"##깨문":16041,"정치꾼":16042,"어이없다":16043,"소위":16044,"##하니깐":16045,"##생산":16046,"후안무":16047,"##라나":16048,"##통제":16049,"##대출":16050,"의지":16051,"조사해":16052,"회의":16053,"국제사회":16054,"좌좀들":16055,"5000":16056,"최선":16057,"휘두":16058,"##차이":16059,"##되도":16060,"경제폭망":16061,"관련된":16062,"노조가":16063,"52시간":16064,"쓰레기들아":16065,"##할수있는":16066,"이들은":16067,"##받지":16068,"내려와":16069,"##값이":16070,"100년":16071,"소름끼":16072,"경유":16073,"이스라":16074,"잘돌아":16075,"끝판왕":16076,"넘어서":16077,"명백한":16078,"WHO":16079,"##사오":16080,"조국장관":16081,"개혁이":16082,"바꿀":16083,"쇼를":16084,"한국경제":16085,"비유":16086,"올리지":16087,"자기는":16088,"자기편":16089,"##모르고":16090,"실화":16091,"홧팅":16092,"사회의":16093,"나쁜놈":16094,"##꾸라지":16095,"##안하냐":16096,"건보":16097,"고졸":16098,"호텔":16099,"##맞는":16100,"버리는":16101,"##주네":16102,"차명진":16103,"##하십니다":16104,"##표가":16105,"나와야":16106,"##가리고":16107,"신의":16108,"참가":16109,"문제지만":16110,"모가지":16111,"우리에게":16112,"전투":16113,"그런말":16114,"하필":16115,"선전선동":16116,"저놈":16117,"##식은":16118,"검찰수사":16119,"이스라엘":16120,"태영":16121,"##도에":16122,"##안에서":16123,"##교체":16124,"김영삼":16125,"버릇":16126,"##일만":16127,"##당해서":16128,"텐데":16129,"##이제":16130,"소독":16131,"하나님이":16132,"속이고":16133,"똥만":16134,"애는":16135,"하겠다고":16136,"2중대":16137,"영입":16138,"일본이랑":16139,"오르고":16140,"적게":16141,"생각없이":16142,"그런데도":16143,"자영업자들":16144,"##실을":16145,"그놈":16146,"훼손":16147,"영감":16148,"##공직":16149,"##댄다":16150,"##힘들":16151,"검사가":16152,"뽑아서":16153,"짱께":16154,"##새퀴":16155,"##소대가리":16156,"훠훠훠":16157,"신호":16158,"자산":16159,"호도":16160,"말도안되는":16161,"##하겠지만":16162,"시선":16163,"##할거면":16164,"애도":16165,"판에":16166,"모를까":16167,"##근무":16168,"기사도":16169,"댓글달":16170,"늦게":16171,"김재":16172,"다주택":16173,"있던데":16174,"저주":16175,"국산화":16176,"한것":16177,"##리지말고":16178,"당연하지":16179,"##갈이":16180,"쓰레기는":16181,"##더라구요":16182,"정확하게":16183,"##준거":16184,"##시키지":16185,"비열한":16186,"그돈으로":16187,"엄청나게":16188,"온국민이":16189,"주요":16190,"배워":16191,"##배우":16192,"##취소":16193,"##됐네":16194,"반성하고":16195,"60대":16196,"몽둥":16197,"##는거랑":16198,"##러니":16199,"##같은소리":16200,"##아베":16201,"줘도":16202,"부모는":16203,"예비":16204,"형평":16205,"##할걸":16206,"사대":16207,"않을까요":16208,"무지한":16209,"낯짝":16210,"태국":16211,"##80":16212,"##모를":16213,"정신차릴":16214,"한나라당":16215,"것인지":16216,"##나와서":16217,"이기주의":16218,"것들아":16219,"필수":16220,"##바꿔":16221,"공산주의자":16222,"##정말":16223,"##치매":16224,"##사용":16225,"호들갑":16226,"네이버는":16227,"편가르기":16228,"vs":16229,"장난하냐":16230,"모아서":16231,"무엇인지":16232,"보입니다":16233,"##들하고":16234,"맛이":16235,"##녀가":16236,"만든다":16237,"죽여야":16238,"살펴":16239,"민심이":16240,"박정희가":16241,"돌아가신":16242,"4년":16243,"꼬봉":16244,"외신":16245,"비참":16246,"##동생":16247,"사이트":16248,"닫고":16249,"중독":16250,"##돌이":16251,"국가는":16252,"다른건":16253,"확정":16254,"##대에서":16255,"몸에":16256,"정부야":16257,"머리는":16258,"주말":16259,"의료보험":16260,"가로":16261,"누구한테":16262,"외국에서":16263,"고등학생":16264,"옆에서":16265,"##줄도":16266,"활용":16267,"##나라에서":16268,"JTBC":16269,"마무리":16270,"쓰나":16271,"나몰라라":16272,"##넘게":16273,"정권바뀌면":16274,"했다면":16275,"##개로":16276,"##더라고":16277,"##값을":16278,"새끼들아":16279,"하는거냐":16280,"모순":16281,"유도":16282,"이슬람":16283,"종자들":16284,"##일까요":16285,"##나가는":16286,"##회의":16287,"##나라에":16288,"##했어야":16289,"작가":16290,"차리고":16291,"##ㅎㅎㅎ":16292,"거리두":16293,"힘으로":16294,"가지가지한다":16295,"##나오는":16296,"검찰개혁을":16297,"아기":16298,"##고발":16299,"##인상":16300,"##심한":16301,"또다시":16302,"압수":16303,"입만열면":16304,"ㄷㄷㄷ":16305,"싸울":16306,"##였다고":16307,"자식들이":16308,"기자는":16309,"따른":16310,"##라면서":16311,"##안한다":16312,"경계":16313,"수소":16314,"선관위":16315,"강원도":16316,"##도와":16317,"살인자":16318,"2000":16319,"신이":16320,"북한군":16321,"만들어놓고":16322,"현실이다":16323,"##다닌":16324,"여기도":16325,"꼬박":16326,"유독":16327,"##인에게":16328,"쓴다":16329,"정시":16330,"지럴":16331,"치가":16332,"##르르":16333,"깔끔":16334,"북미":16335,"숨쉬":16336,"안철":16337,"조원":16338,"##집이":16339,"올리면":16340,"이제서야":16341,"안통":16342,"##바랍니다":16343,"##이유가":16344,"귀찮":16345,"##듯한":16346,"##문제가":16347,"배불":16348,"빌붙":16349,"청렴":16350,"골라":16351,"##끼가":16352,"##씨도":16353,"비싸게":16354,"달아":16355,"성격":16356,"##없어요":16357,"##입국금지":16358,"구별":16359,"##덩이":16360,"니네들":16361,"죄지":16362,"##인데요":16363,"하시길":16364,"위하여":16365,"장하":16366,"##키트":16367,"계시":16368,"배민":16369,"##un":16370,"##누구":16371,"그리도":16372,"보나":16373,"이태":16374,"어딘":16375,"모르네":16376,"대깨문들이":16377,"배워라":16378,"스포":16379,"싸고":16380,"시간을":16381,"집단이":16382,"##라는걸":16383,"느그들":16384,"불의":16385,"시원하게":16386,"전체가":16387,"##셨나":16388,"반성해라":16389,"앞서":16390,"의존":16391,"하겠다는":16392,"후보자":16393,"소리만":16394,"문제냐":16395,"구체":16396,"내면":16397,"따위":16398,"미련":16399,"신뢰가":16400,"개는":16401,"떨어지고":16402,"못하나":16403,"이상이":16404,"제작":16405,"하겠네":16406,"##레오":16407,"의사가":16408,"##라우":16409,"생각해라":16410,"설쳐":16411,"성향":16412,"##했을때":16413,"##였냐":16414,"들어와서":16415,"기본적인":16416,"경제에":16417,"손바닥으로":16418,"뒷북":16419,"부작":16420,"해줘야":16421,"도둑질":16422,"3일":16423,"개수작":16424,"패스":16425,"##달라는":16426,"글구":16427,"사실이라면":16428,"사립":16429,"##사장":16430,"##블릿":16431,"그래요":16432,"나가라":16433,"경향":16434,"못사는":16435,"임마":16436,"이런말":16437,"적폐로":16438,"넘은":16439,"신발":16440,"틀림":16441,"##대비":16442,"10만원":16443,"이인영":16444,"안된다는":16445,"살리":16446,"##받으면":16447,"##듣는":16448,"지겹":16449,"##출산":16450,"##상의":16451,"##NS":16452,"##저래":16453,"학교에서":16454,"금수저":16455,"수학":16456,"좋겠어요":16457,"기업은":16458,"속아":16459,"##실장":16460,"대학교":16461,"역풍":16462,"##어지":16463,"##릴수":16464,"갑시다":16465,"문대통령님":16466,"안하지":16467,"우째":16468,"인간말종":16469,"중산":16470,"##죽이고":16471,"대한항공":16472,"##시키들":16473,"생각으로":16474,"수사권":16475,"##어를":16476,"기준이":16477,"현명":16478,"회계":16479,"이중성":16480,"저소득":16481,"##그랬":16482,"##호식":16483,"될것이다":16484,"문쩝쩝":16485,"판을":16486,"##뭐냐":16487,"똥줄":16488,"않는데":16489,"##월에":16490,"건가요":16491,"보는데":16492,"하실":16493,"##중의":16494,"선동하고":16495,"사이다":16496,"해봐야":16497,"##조기":16498,"충청":16499,"그래놓고":16500,"사실은":16501,"정도의":16502,"잡은":16503,"본인도":16504,"모델":16505,"##된게":16506,"축소":16507,"사안":16508,"일으킨":16509,"정보를":16510,"증오":16511,"남았":16512,"##잡는":16513,"색출":16514,"협의":16515,"##억원":16516,"없다면":16517,"무개념":16518,"안막":16519,"완성":16520,"치밀":16521,"부럽":16522,"선심":16523,"지오":16524,"검찰과":16525,"거짓으로":16526,"인력":16527,"알고나":16528,"떠들고":16529,"에어":16530,"책임지":16531,"기업을":16532,"대상이":16533,"다른사람":16534,"했어야":16535,"형제":16536,"강조":16537,"밥은":16538,"튀어나":16539,"호소":16540,"만들었":16541,"골라서":16542,"##개표":16543,"##연합":16544,"인정하는":16545,"유권":16546,"##실험":16547,"할수있는":16548,"굉장":16549,"하수인":16550,"고로":16551,"뽑는":16552,"##죽일":16553,"북한한테":16554,"##당해":16555,"소득주도성장":16556,"도박":16557,"천재":16558,"##도없고":16559,"##게임":16560,"##가에":16561,"##음을":16562,"스티":16563,"기사라고":16564,"저번":16565,"채워":16566,"##데기":16567,"하지도":16568,"백신":16569,"화력":16570,"##위조":16571,"국민들만":16572,"##해결":16573,"밝히고":16574,"글쎄":16575,"찐따":16576,"문죄인은":16577,"돼지로":16578,"믿는다":16579,"예방":16580,"##치않":16581,"##보네요":16582,"##질만":16583,"대구는":16584,"아랫":16585,"##이는데":16586,"##지켜":16587,"버텨":16588,"거시기":16589,"현혹":16590,"##호가":16591,"##패거리":16592,"100만":16593,"위법":16594,"쳐박":16595,"당할":16596,"양승":16597,"##오게":16598,"많으면":16599,"외노":16600,"##보가":16601,"##국적":16602,"##독립":16603,"논리로":16604,"명예훼손":16605,"개망신":16606,"오늘은":16607,"의심이":16608,"명박":16609,"##해달라고":16610,"빌어":16611,"조정":16612,"출입":16613,"수준이다":16614,"아베의":16615,"기억이":16616,"김건":16617,"##70":16618,"아이들을":16619,"보임":16620,"##의원이":16621,"자리에서":16622,"개웃":16623,"짤라":16624,"선거철":16625,"##우니":16626,"여론몰이":16627,"##뿐만":16628,"반일선동":16629,"하는건지":16630,"부를":16631,"피해는":16632,"싸우고":16633,"##리는건":16634,"아베한테":16635,"2천":16636,"끝장":16637,"임진":16638,"하나의":16639,"##무가":16640,"##실에":16641,"일자리가":16642,"물리":16643,"이상하다":16644,"안일":16645,"고마해라":16646,"##당께":16647,"##몰라":16648,"교수가":16649,"##건만":16650,"청와대와":16651,"인권을":16652,"##했잖아":16653,"개를":16654,"괜찮은":16655,"잘하면":16656,"##mf":16657,"##인지는":16658,"##명으로":16659,"가는게":16660,"다수":16661,"말투":16662,"##심에":16663,"##나라를":16664,"보수를":16665,"교활이":16666,"집이":16667,"벤츠":16668,"할게":16669,"##주사파":16670,"##겠고":16671,"아마추어":16672,"못들어":16673,"##별로":16674,"##강산":16675,"##채로":16676,"어떠한":16677,"##나오면":16678,"배고":16679,"##질이나":16680,"도시락":16681,"##아닌가요":16682,"그립":16683,"노트":16684,"##잖냐":16685,"어설":16686,"가족을":16687,"다리":16688,"인신":16689,"새끼는":16690,"아가":16691,"##것에":16692,"##같은거":16693,"##스럽네":16694,"사퇴하고":16695,"문통은":16696,"##물은":16697,"분노가":16698,"창출":16699,"##소수":16700,"##써서":16701,"이러한":16702,"했어":16703,"혐의":16704,"쓸모":16705,"에라":16706,"##진게":16707,"제조업":16708,"##번방":16709,"안하나":16710,"열일":16711,"집착":16712,"남겨":16713,"내내":16714,"##다르":16715,"머냐":16716,"##화로":16717,"피가":16718,"도움을":16719,"오지랖":16720,"국뽕":16721,"지들도":16722,"##될까":16723,"##되어서":16724,"뻔한":16725,"아니겠지":16726,"대량":16727,"좆선":16728,"차례":16729,"##다닐":16730,"##당할":16731,"만드네":16732,"완장":16733,"광화문에서":16734,"꺼내":16735,"##마시고":16736,"##무새":16737,"##하시면":16738,"받아들":16739,"밖에서":16740,"전재산":16741,"횡령":16742,"##주에":16743,"##면제":16744,"북한이랑":16745,"##새끼는":16746,"동원해서":16747,"버는":16748,"왜들":16749,"정신병자들":16750,"개소리야":16751,"자중":16752,"설레발":16753,"##려야한다":16754,"답답한":16755,"##했어야지":16756,"70년":16757,"죽어서":16758,"##당에서":16759,"하태":16760,"단순히":16761,"열등감":16762,"기능":16763,"##구장":16764,"어렵다":16765,"##회장":16766,"##하다면":16767,"대표가":16768,"못사":16769,"삥뜯":16770,"안에서":16771,"조국아":16772,"자주국방":16773,"의원들":16774,"안하는데":16775,"유촉새":16776,"##왜란":16777,"##는거는":16778,"##방법":16779,"##거네":16780,"##주는데":16781,"조선일보가":16782,"se":16783,"##탱이":16784,"미군철수":16785,"##💙💙💙💙":16786,"눈에는":16787,"해고":16788,"##내요":16789,"##염병":16790,"뉴스를":16791,"살려고":16792,"##만봐도":16793,"##신천지":16794,"자한당의":16795,"외교를":16796,"것인데":16797,"보일":16798,"사람이냐":16799,"상관없이":16800,"윤총장님":16801,"있겠지만":16802,"추잡한":16803,"끼고":16804,"한개":16805,"있을때":16806,"사라져라":16807,"##속이":16808,"귀족노조":16809,"심하게":16810,"유시민은":16811,"유착":16812,"시민들이":16813,"대책이":16814,"아닐까요":16815,"당을":16816,"없어지":16817,"마음으로":16818,"올인":16819,"안가고":16820,"짓밟":16821,"카카오":16822,"프리":16823,"##서로":16824,"##여성":16825,"##잔치":16826,"여론을":16827,"보유세":16828,"끝났다":16829,"대폭":16830,"전쟁나면":16831,"수수료":16832,"나한테":16833,"바뀔":16834,"##아파":16835,"##새끼들은":16836,"간첩이":16837,"SNS":16838,"##말아":16839,"##말든":16840,"빨갱이는":16841,"공정하게":16842,"예측":16843,"##차에":16844,"인구가":16845,"저들이":16846,"징용":16847,"현직":16848,"##었어요":16849,"아이돌":16850,"바이러스가":16851,"유승준":16852,"나팔수":16853,"빌려":16854,"이전에":16855,"쫓아":16856,"00":16857,"바꿔야":16858,"##오니":16859,"##심은":16860,"우리집":16861,"주둥이로":16862,"##시적":16863,"##기냐":16864,"독재를":16865,"##인정":16866,"당해":16867,"욕만":16868,"있구만":16869,"##가야지":16870,"그다음":16871,"손학":16872,"개돼지가":16873,"팩트체크":16874,"많다고":16875,"##받는다":16876,"##지않아":16877,"놀아나는":16878,"##인거야":16879,"개박살":16880,"##생각을":16881,"가수":16882,"우병":16883,"그런다고":16884,"않았나":16885,"소중한":16886,"그들을":16887,"자신들이":16888,"발상":16889,"엄한":16890,"##인증":16891,"한푼":16892,"##기부":16893,"어이없네":16894,"##어린":16895,"##지들":16896,"이름이":16897,"우상":16898,"##치자":16899,"##아니야":16900,"부족한":16901,"가벼":16902,"강도":16903,"분위":16904,"여권":16905,"되는거지":16906,"정체가":16907,"##학년":16908,"##물로":16909,"구글":16910,"둘러":16911,"게이트":16912,"바가지":16913,"압승":16914,"##쪽은":16915,"##중요":16916,"걱정된다":16917,"주의":16918,"국민성":16919,"밀어붙":16920,"나발이고":16921,"받으":16922,"빡대가리":16923,"##방에서":16924,"##성화":16925,"몰카":16926,"못하는데":16927,"은혜":16928,"있니":16929,"퍼주기":16930,"##공동":16931,"보이고":16932,"##ho":16933,"##하기를":16934,"의원님":16935,"안간":16936,"증말":16937,"##정상":16938,"##공항":16939,"한미동맹":16940,"법에":16941,"않네":16942,"차려":16943,"국익을":16944,"수신":16945,"냉정":16946,"다른게":16947,"하루하루":16948,"##냅니다":16949,"미세먼지가":16950,"##많아":16951,"칼을":16952,"방송에서":16953,"군림":16954,"여군":16955,"짝이":16956,"##빨갱":16957,"댓글다는":16958,"##하냐고":16959,"다니면서":16960,"##자랑":16961,"##설치":16962,"짱깨들":16963,"##형을":16964,"강남구":16965,"##자꾸":16966,"어지간히":16967,"바미":16968,"##거짓":16969,"삼청":16970,"지킨":16971,"##그로":16972,"문제로":16973,"바꾸고":16974,"김문":16975,"##다며":16976,"안팔":16977,"욕하면":16978,"##부담":16979,"##3년":16980,"있었나":16981,"약한":16982,"해준":16983,"될거":16984,"없었으면":16985,"##많네":16986,"##NA":16987,"앞뒤가":16988,"우동":16989,"외출":16990,"##나이":16991,"필요합니다":16992,"##셨으면":16993,"##프로가":16994,"되잖아":16995,"연대":16996,"##애비":16997,"##버리면":16998,"잃은":16999,"##해지는":17000,"##일으":17001,"뇌피셜":17002,"보내는":17003,"앞으로는":17004,"겸손":17005,"초반":17006,"미래통합당":17007,"원조":17008,"##소리가":17009,"45":17010,"대구에":17011,"없어질":17012,"공권력":17013,"로또":17014,"지휘":17015,"자발적으로":17016,"말입니다":17017,"떨어뜨":17018,"주적":17019,"학대":17020,"황제":17021,"##책을":17022,"문화재":17023,"소상공인":17024,"소각":17025,"예를":17026,"백날":17027,"죄는":17028,"찍을":17029,"트위":17030,"일본산":17031,"이제라도":17032,"종전":17033,"##도시":17034,"응징":17035,"나가면":17036,"##되는지":17037,"그런게":17038,"##해진다":17039,"대통령이란":17040,"호구로":17041,"적극적으로":17042,"기분이":17043,"법인":17044,"외모":17045,"제3":17046,"외부":17047,"종자":17048,"다신":17049,"두고보자":17050,"브랜드":17051,"안그러":17052,"##이던":17053,"##심으로":17054,"##겄다":17055,"상당히":17056,"씌우":17057,"찌그러져":17058,"차가":17059,"바보가":17060,"살다살다":17061,"먹고사는":17062,"너네는":17063,"그간":17064,"이준":17065,"인종차별":17066,"반발":17067,"반영":17068,"##사과":17069,"맹목":17070,"이왕":17071,"##쩌고":17072,"##해야하는":17073,"조사하고":17074,"모자랄":17075,"김무성":17076,"부럽다":17077,"살다가":17078,"봤다":17079,"왠지":17080,"정상이":17081,"고등학교":17082,"연방":17083,"##아비":17084,"##운운":17085,"시장경제":17086,"무력":17087,"정으니":17088,"##자본":17089,"붙여":17090,"실시":17091,"##증이":17092,"##배를":17093,"악용":17094,"있는거다":17095,"##임명":17096,"하고싶은":17097,"할것이다":17098,"머리를":17099,"간절히":17100,"침해":17101,"조국사태":17102,"좌빨들의":17103,"##고있는":17104,"##장악":17105,"들어야":17106,"##re":17107,"저것도":17108,"확신":17109,"##나쁜":17110,"손으로":17111,"##입으로":17112,"만들자":17113,"환경단체":17114,"있었으면":17115,"현명한":17116,"소식":17117,"##비어":17118,"##하더라도":17119,"시바":17120,"##말대로":17121,"내놓고":17122,"삼권분립":17123,"##국가가":17124,"미화":17125,"속지":17126,"##질하고":17127,"##더러":17128,"수행":17129,"아니에요":17130,"낙하":17131,"##감도":17132,"막는":17133,"박수를":17134,"챙기고":17135,"취임":17136,"검사를":17137,"조성":17138,"##물어":17139,"다루":17140,"일가":17141,"##라는거":17142,"##리니까":17143,"북한만":17144,"신천지에":17145,"둘째":17146,"말좀":17147,"남에게":17148,"자손":17149,"문희":17150,"있을까요":17151,"##한다는게":17152,"나머지는":17153,"노무현이":17154,"골수":17155,"##갔는데":17156,"눌러":17157,"가시":17158,"이쁜":17159,"집사":17160,"알고있":17161,"쉽지":17162,"혈안이":17163,"##올리고":17164,"##평가":17165,"거짓과":17166,"다르지":17167,"##문재앙":17168,"구제":17169,"봐주":17170,"일등":17171,"##였구나":17172,"중요한게":17173,"고기":17174,"잡아야":17175,"##내에":17176,"부끄럽지":17177,"컨트롤":17178,"남자들은":17179,"##바다":17180,"한국사람":17181,"미국한테":17182,"내뱉":17183,"##이에요":17184,"##따구로":17185,"긍정":17186,"말안":17187,"보좌":17188,"안죽":17189,"한가지":17190,"##그대로":17191,"제명":17192,"흐름":17193,"##억씩":17194,"보며":17195,"소문":17196,"잠잠":17197,"처벌해야":17198,"되나요":17199,"##전한":17200,"##돌려":17201,"해도해도":17202,"##선에":17203,"교통사고":17204,"대상으로":17205,"##들임":17206,"##좀비":17207,"미쳤다":17208,"한미일":17209,"엉터리":17210,"정책은":17211,"뿐만":17212,"주위에":17213,"##명단":17214,"##👏👏":17215,"##이긴":17216,"아니랄까봐":17217,"검은":17218,"장담":17219,"할말은":17220,"##되기":17221,"##져야지":17222,"발언을":17223,"언젠가는":17224,"싫다고":17225,"##수지":17226,"##없습니다":17227,"부모도":17228,"가도":17229,"저들은":17230,"OOO들이":17231,"기준으로":17232,"놈을":17233,"지고":17234,"##았던":17235,"##는건가요":17236,"망친":17237,"배치":17238,"형편":17239,"##제목":17240,"사이비종교":17241,"감방에":17242,"손해배상":17243,"tv":17244,"##거리며":17245,"될수":17246,"따까리":17247,"자들은":17248,"##구야":17249,"많은지":17250,"##들에게는":17251,"이모":17252,"일본차":17253,"##나라냐":17254,"쓰레기야":17255,"##스럽습니다":17256,"애쓰":17257,"##교통":17258,"철저한":17259,"이인간":17260,"허경영":17261,"##돼서":17262,"진보가":17263,"ㅅㅋ":17264,"##당도":17265,"##대니":17266,"##하지마세요":17267,"망한":17268,"백퍼":17269,"전통":17270,"찾아서":17271,"표정":17272,"자한당을":17273,"수사는":17274,"반면":17275,"풍년":17276,"모른척":17277,"답없다":17278,"어거지":17279,"##무지":17280,"##량을":17281,"일본보다":17282,"영향을":17283,"속도":17284,"##미친":17285,"##되니까":17286,"사케":17287,"세균":17288,"추측":17289,"##보이는":17290,"지능이":17291,"끼들":17292,"바꾼":17293,"##해줘":17294,"##돈은":17295,"검찰개혁이":17296,"임명한":17297,"연예인들":17298,"죽창들고":17299,"자한":17300,"들어가면":17301,"의원직":17302,"놈아":17303,
[...]
